#map = affine_map<(d0, d1, d2, d3) -> (d1)>
#map1 = affine_map<(d0, d1, d2, d3) -> (d0, d1, d2, d3)>
#map2 = affine_map<(d0, d1, d2, d3) -> (0, d1, d2, d3)>
#map3 = affine_map<(d0, d1) -> (d0, d1)>
#map4 = affine_map<(d0, d1) -> (d1, d0)>
#map5 = affine_map<(d0, d1) -> (0, d1)>
#map6 = affine_map<(d0, d1) -> (d1)>
module attributes {torch.debug_module_name = "lenet"} {
  ml_program.global private mutable @global_seed(dense<0> : tensor<i64>) : tensor<i64>
  func.func @forward(%arg0: tensor<1x3x32x32xf32>) -> tensor<1x10xf32> {
    %cst = arith.constant dense<[-0.00871507637, -0.0709922761, 0.106052049, 0.101737082, -0.0934692993, -0.0936424434, 0.0771810487, -0.0154941035, 0.0104938475, -0.0697225258]> : tensor<10xf32>
    %cst_0 = arith.constant dense<"0xE94CBD3DFE149A3D5A8D8BBD4501433A1FA8223B9F828EBDCDC5CD3CF9C6B93D963EF03CD31E5EBDAFF7DEBD52FEBD3D703CBE3D072D313CB6A52E3DE3CDDABC459B533DDC6A80BD011CB13A65ADD5BD5CD4923D1A7F663C2F0251BD76F5C03DD5DC5B3D7A8BAC3D8352ABBD0B24C13DC0D58A3C78D5953C5406A5BC87CAD93D80611D3DA23091BDA269D2BD5807613D7ABD4E3C935930BCF8307BBD1D00133AC27639BC295F3AB9F9A3C7BDD94657BD702601BD8E4ED0BD718DB43D4616BFBD04A4333DF404503D42DA703DFC55803CE0939FBDD3BCBE3D234C6EBDA2EC8DBD94BA50BAE71980BD0D60393D930696BDBE3F8FBD182E8D3C803F90BDAABE45BD06CB74BD35F9A2BD1F4488BCBEEA9EBD51E1803DF8AAA33D4220A93D36CCE7BBA065A0BCECEDB4BD576052BCE85F87BD7BDD17BB5EC50FBD94EB88BD8668C03DF2E024BD296C9BBC298E313D8D71B03D7E4529BDF044423DF7D61B3DC949873D9EB38CBD30D749BD6526B23DBAEFD73D9350343D09DCA9BC2FFE5ABDE8573A3CDB2EAA3DD92ED83D13F94F3DF7EB0ABD9D7BD8BD1808CBBCFB97AC3DEA5CCFBC53C7F1B9F3FD3C3DA37FB53D51BF723DBEA1A13D371A13BDE3CB86BCA13550BC9541B5BC4E3AC43D930720BB55FDB23DDEBCB1BD12CE85BC3A15013D70F4BEBCE0A7A23D5A8B58BDB246ED3B0710B2BC21EC0ABD245D733D9916D83D5778A6BD3FF52FBD6FB6A43D34389F3D4907CA3D5C6B11BDFE66CB3C743E593D34C1833D6778FCBC51066A3D63E1B83CCE26EEBCB64BB13C3F86293DD8336A3D8495043D635A773DA4F99F3D1B07A13ACE6785BDBCC26A3D5A30613D06E3D23CCFB6A739B86C3E3DAE8EA3BDC0B4E73B5BE2BF3DFF71B5BC66C29D3D75B3823DBB42083CF0CDA13DE81F853CDE52DA3DC9A067BAA418A3BC6512863DCE8A85BCC110E9BC2918B03CF2DC6F3D36655A3D4B3C19BDDF7887BD59D9CC3DD1251E3DE1B1733B8F0F913B563F513D446CEBBC05ECD6BD5349253956CC9CBD5A2B12BBBD60033DAA1455BD0CC1993D1F72993D0C24B3BD9675DE3D33D9473DCEF6983D1CDBE5BC5245B6BD61AC8B3DED4B10387FB0D8BD5C2F393DF2E38FBCDF9C94BCB1DB6F3DB52401BD6ACDBCBD52F3393DF5B43FBD0FCDF73C4C33DDBDBDDF8CBD9B02CA3DD163C7BD826337BD22D7083D21C2B83D676C50BDE3A993BC62297CBC51F19ABDC858AC3D7E30B03D648CC43D9108EB3B97D495BD37A787BD03A14EBDFA2079BDAC36ACBD8D730EBD0989DCBCC8DE9C3D0EDBCF3D14D4DDBD341747BD4C6B733D7981A5BD5C68953AA397023D23EF95BC8347063D69F02DBD8D46B53D790ECCBCE12B0FBD15D9BC3CC4A34BBDBAAB97BD97C4D03D3333FC3C45512BBD0460B13DB381D0BDF7B8F4BCD9A20ABCFA98ACBB7B767CBD6E115A3D392A523C76BE8EBD6B857B3D058B143DFCBB8E3D6CC08DBDE91FBBBD700EC33D90DC14BDF225CE3D29B810BC49EF79BCC91CB63D96DA983D0D9692BD7A0B46BD0A549FBD2094A5BDE06257BDA997A83D6178363C2B458E3D48A2DF3C8D3721BCAF20353D5AE67EBD51129B3D6BCAC0BD7E45BEBD8965D7BD65078ABC778A35BC6E04A63DC5B1583CFCE1D3BBEC1748BC318B223DE3A86FBDF849A33DE84E39BDE7B7793D1377003C75026F3DEEE197BD22DC8ABD90978A3DB82541BCF697E33B082DA0BD1F13C6BD952AC8BD578238BD6E11373DFB07773B776DB7BCBBFA2A3D6F68733D9AE15DBD8E99AB3D7FB4C73CEBB6D4BD7801863D33F049BDD1BF253B9BE487BDB269A53DAFDF1A3CE581D53D05B402BDB99731BDA48A8E3D3AE6B9BD80E3603C0360AD3D7065A83CA738AABD3A6A803D85A5DB3DCD64103B1174323DA212BD3DD117D63DE35796BD683595BC16CA253D1A272EBD5512A53AF1C4513D3478B5BD04C022BC0ED159BCA3B6323D496D95BD30189DBDA285B93D0576933D62E491BDF04BADBDE7147A3D26FD963D10899FBD3A5B903CA56DAFBD28D6983DECCC06BDE7B49DBC9A64363D764D603DAF01873D11B1A2BD032B2FBCB591393DB813C2BD9BA2313D1F69B93B57B8C8BCA88CDB3D44CCA63DB989403D30C7BFBDA259A53D7C78293D13C599BDD3F4703D34B81DBB89F221BD9F45DF3DB3C0AEBD0ECAD33D7BFC1CBD5E99963D9DF5113D1720BCBD2F8B9EBDB7156A3DB7C588BDCB54B4BDEA56CA3D2A319B3D3DA9B8BDEDF4FC3C885A9BBDFC2C1B3CF71CBA3D8FC3B43C9B679BBD95B77B3CBD61E13C6BDAD7BD588579BC2BB1BF3BE6AB2FBD4428C73CCF4DB2BD9EA566BCA83382BDE5FF0E3DB9261CBDC5E28EBD2AF7AFBDBE1FAF3D01301ABDB81949BD7A966A3D3CCA0FBDBAD90CBD383B48BC6F6FCF3D057400BC3EC993BD52D00EBD58A0603DD907BABC5E21C8BD1D18253DFAD8B2BD3442803D6881FB3CF5F3B2BCA8562FBD0B1A0D3DD111013D1C64D9BDA00D073C796D863D82BD943DCC44B63CD05D833D107A223D6C0C5F3B2CCF5E3D22CD4ABD2ACBB13D127A953D53F239BDAF278D3CFF5C80BD998BC4BD1EB2D2BD19833E3C2575433B1C0DB23CDE40EB3B1AE85ABCD30BCA3D4C9C743C8D09AD3D5DAA8E3DD523A03B01DDCE3D3CCADEBDD072CCBD497D9F3DB0A6223D9C08973B6394AE3D2ED53D3DA9A0AF3D6A36043CC8A62CBC2CA6B7BC6E088BBB403205BD8AD39B3DB819C5BD0B4CE4BC6C12D03D1F7A943C96E0A6BDE70A203CD165363DA684D33DB0C200BB96EC15BD9D3917BD2B6F03BD9B08A83DF5FDB9BD75C0C73D47BFB6BDF917D4BD9203DB3DADEA4E3DD62CC03D475002BABDD7023CCCD6CE3DED9E0D3D44D794BDBE8D573C26CDC5BD59CBB8BBA397543D0E0AB13D118ED73CCB1772BDF875B0BD857DDD3B79FA21BD7FD1CA3D62EED33DA930B33D361DC7BD1632AC3D4448D03DE608E9BC49C335BDCCEBAA3D0C5FDE3B8568C2BA51FFABBDFCD19CBDAA3BDF3CA4E3D6BDB7F220BD57458BBC192C9CBD97DEE93BC474C73DD58FBBBD9E68D33DD0E8943D5196DC3BC1498CBDA355A83DC0D0C1BBC2872ABD1E3EAC3DFC074BBD82AC46BD171EF33C502C5E3BAD2E2D3C34F70FBCCCDD8ABCB183C93CD20CC63D61F7D53D22A9AEBD2770D3BD16ED973B343DCABC6A7D87BDC5F3813D1B413D3D496F6D3D3428A73D7BF5263DE32AD8BDA58DA8BD697DB23D18AB4EBC108D97BD62DCCEBDE4C5DBBD808BD83C052DE73B9014963D73686ABD094AC2BD8E1F8D3D6A06B63CF1B894BCED8B6D3C67F9CFBCB93D1FBA1D69C4BC1EC9CA3D8CCA6F3D6D5FB23DCE39C73C5D4EE43CC90AA23D1616DC3DED1E34BDF2D6A5BB3F9E8ABD76BBD1BD2D22913DBCB1D43DA8286F3D208C06BDDA10273D8F5B97BDF2D3B43DDD80543DE580CE3CEF6AC03DF91AA33DD684C7BDA5154DBCF17C9DBDC7C2C33DD8115DBDCE6531BD5816D93C465CDE3D2203643D588B70BCE499B9BD0F6453BD04EB453D75A6CDBDE9C76C3C2D196B3D344D843D27A4B8BDEA11CD3D1190DEBCB950D0BDF6BD773D0D8FC7BD594D54BD60D1303B9FFD813DC7AC0A3CB7B7BF3CA17781BD72C6973D60B2003DE0A6CB384FE76CBD6CCC61BD1454A5BD74C3C43D52DF18BD4829AB3DB099B5BC7F5B893C5CD4BEBD26B7643D69A77ABD4D631D3D5471653D7D8D293D5C2220BC054303BD51DF5ABDA05DC53CAD06AABDF6A634BD71BD0BBC90B1553D50B2C33D864C04BDA395AA3D564CA13D81071C3D4614BDBC35E3C33C9C3A773B86D97C3DC3B07B3B54E59A3C9586563DD1EBDC3D946EBC3D894C893DCFE1F23B44D412BDA627A1BC2C92C0BDB7142B3DE28CABBD1988BEBDDEDC933CF0E1C8BC3B6DC0BD4801C6BDFC0781BD27A48CBCB1884BBDA929A5BD597B823D755966BB0733FF3C2E6F5BBB205B123D873743BDE0DAD03A4DB027BD5B50AB3DE68C6CBD272B513D09AB96BD7312BE3D7139573DC82FD13D73DF803D0BB064BC06B7B73D612D173D0EBCE93CFEA0B0BD742D9CBDB664B63DD4AC6B3DFBA09E3D14A868BDCCD1003D7DE6AD3D6D1E403D7FF9BC3D4C0930BD4537A83D2D17D2BDA0CF203CCB4CB4BDD050A23D351A4ABC28F004BD8A3B833D8712D8BB4D74CBBD122296BDDC6B2DBDF7D6163CA5E9D5BD5458433DE32A23BD41C14ABD5FFFEBBCFB1921BD6F7A5E3D0B3F203DF2C3BC3D977CC33C94F573BD01E85A3D92AE223D30A8C9BC048D0ABDC7D6953AAF47F4BC69BB913D297DDF3CC523A33D4550893DED62ADBD1C70B93DE93C0BBCFC53833D216EB1BDDDB927BD2B23163D04250B3A51D2683D8AE69D3DB661813C6F67CFBDED2C923D7DA67C3D9A50E33AB3FD8DBCE8D7A13D12234BBD84CCAA3DB321943DD819403D1DAABEBDF772B83D043312BD5CE3D63D90A573BD061F00BA017D723D589C05BC1745BFBDB7E36EBD4D350B3D99FA963DE1CD063D24ACCE3DAED4A63D6C28D63D0CE665BD00B5293C7CD9D0BD7787C6BD335EA63D618FFABC9B08EF3C99A3363D35A69B3C558C4B3D4E07853D4C9ECC3D47C1543C81E6833D0CBBFABADF72463AEE80A43D59FEA93C6F8ED3BDAE9D4B3DB84D423D1184173D27F7CDBD62982A3ADCCE0FBDF525DEBDEDA53C3D82CD14BD915214BD92E311BD3972F03CC714D4BD922DB8BD228063BD4CCFBC3DB4E0693D7CE04B3C1D37C4BDB85D27BC5265B93D7D372CBC3D234E3DB6F7AE3DF92BA5BC7D3B7DBDA6D6E1BC40D4B93D2A57743DADC3323CDF1FF03CF89B0CBC"> : tensor<10x84xf32>
    %cst_1 = arith.constant dense<[-0.0215175543, -0.0512071177, 0.0366005637, 0.00759348413, 0.0455670319, -0.0628261268, 0.055591289, -0.0319132246, -0.0322787352, 5.383350e-03, 0.0474397726, -0.0375884585, -0.0555193797, 0.0899717435, -0.0167927463, -0.072174944, 0.0254128519, 0.00703730247, -0.0444672592, 0.0765775144, -0.080473721, 0.0550247915, -0.00686920388, 0.0356143266, 0.0203565583, 0.0620572492, -0.023805704, 0.0780512244, 0.0243151896, -0.0120017286, 0.0413382165, 0.0300042331, -0.0700089261, -0.0810247734, 0.023246171, -0.018533092, -0.0463680439, -0.0405115969, 0.0334801301, -0.0438172072, -0.00984622259, 0.0814334452, -0.0785015672, 0.0877391919, -0.0199776478, 0.0663358644, 0.0630147681, 0.0372459926, 0.0859255194, 0.0643828139, -0.0369810201, -0.0449201241, 0.0159588587, 0.0722526535, 0.0557238683, 0.0282371063, 0.0315869935, -0.0154917371, -0.0798403174, 0.00205359305, -0.0251869913, 0.0354190208, -0.0356085822, 0.080998294, -0.0833334401, 0.0524115898, 0.064371042, 0.0360162407, -0.0440116413, 0.0251635183, 0.0237460248, -0.0806630551, 0.0665229335, -0.00927371717, 0.020022722, 0.0820455625, -0.0613478236, 0.0188978873, 0.077652052, -0.056163162, -0.080476746, 0.0752316937, 5.233860e-02, 0.0681276396]> : tensor<84xf32>
    %cst_2 = arith.constant dense<"0xFC185CBD53B1903D51194F3DC5151E3D386FE4BC29E86E3BC679B63D7FFC41BDB6D39C3DADEA3E3D15CCD33C853456385D394DBC2F4F74BD9BB029BD9F3185BD34A2B3BD50BE9F3D0B783E3D591B053DD16D5D3D190FB93DF59EF83C91DF323C575B16BD6487BFBA10409CBDF9F3853C68AAA83D69FBB5BDCDC7B43DC2E868BD29E058BDD73494BD32C7AB3DC1A1473DF1C05D3D8C6203B99B2213BD3197813B38E4963DC67C8BBDB2A36B3C3EA894BC5533243B5389F83C3BEB8BBAE746D5BCB3FA80BC55785FBD49D5CABC6A4953BD85C6673DC51FB63D64A30D3D1F8333BDDCD8B8BD7BDB87BDF47BAC3C019F3CBD9468BABDC822AF3DF55A57BD6BA9653D87779EBCC34138BD72D3AA3BC1126B3D0E35B03D6B8C21BD1FA58BBC084290BDA13C203C76632EBD3C7C1CBD18E3123D805672BDD90BC3B9ADEDB83D1EEB85BC295BC2BCECDDB1BD9E8938BDE30EF5BCE93E43BD42B6233DD41203BD0901B6BD9439C9BCC1CC093CE161DABC64CB62BD70D371BCA4B788BDD54D2C3C59668ABA09C12C3DAA2F8A3B06750FBD187FA73D494557BD688AB93B854A553DACCD0E3D6560D2BC2D447C3D1CC9A93DFDC4933DE4F89CBD398373BDDF33103D850AB03DD96CABBDB6E667BD1E918FBC7B35BABDA7A1553DFD4CB4BC430B45BD28CE88BDBD7A273DF461A43D30D58E3DAAB948BD850DA3BD5A029F3D88DC04BDA5179D3D45BA063DCED5AD3D0D0D533DBC91833D683E1FBD00A77E3DCBC14DBD4D0855BD4F39BA3D57BB6BBB2BAA97BDE99F023D3A816CBDFD49A13D6331023D15656EBDFBC990BCEF98B03D277F8CBDA86C0E3C3AF8983DD5A7E5BCC46CB13D097A833DE98807BD78F076BD8913253D34973A3DDD0290BC410282BDF2E60DBDADE287BDAA0669BDEBC0AD3D2BDBA03DB3C37BBC5D4FB9BD9BD3C6BC4876B83D458B893DA7D434BDD12D4A3C82514DBD1F641CBD2DD3A43D5E5357BD23F46C3C11EF4F3D3FCAB73D81107F3D594B9FBDD251B53D779892BCE4D043BD192B9D3DCFEB11BD691C6BBD3435993CE15D8D3D0285853D95AF69BD5C15AE3D5353003D4957AF3D60C480BDEC1E93BD80943E3D9459E2BB3BE3AEBDFBE5353DC4AEC13AC879193D8961043DED8E40BDDC2F43BC2AC15E3D461538BD67B59E3D89A151BD36DAA6BCD60E18BD23DE34BCE35B673C73D6753DD75F373D27FB65BC03AEBA3D5FCE84BD1864A5BC257771BD06598ABD099CC6BC9D26223DC604B8BDB53D4BBD7A2A35BD95784EBDCA8CA6BD3518C73C829003BD77A6A83D3DCAD83CE791ADBBA9B1E6BC4AD612BD593CD6BC7681B93C00B03ABDE30707BDCD7382BD3F4D813D83A48A3DDFDA093DB9B4CC3C31167ABB53B0833B0EEF28BDCC22803DC0B9273DFAA19DBDB69CA5BDFB6B69BC70C169BDC6DB303D33CF843DE6FE49BC49B83E3DFE03B1BDEA98523D04689E3DFC9A433A7B8D4CBD783C3FBD4D23853D75C992BD8A1B63BD91A1AF3D9266B0BD448D53BD8BE482BD98E6AABCF29884BD97C6243DD58F61BCD881A6BD0A1742BDD6E604BDC980A43DC19833BD46C2203CD8D1B6BC224B973D37C2D43C5E8F6D3DB500573D72073C3D5135B0BD50977BBDACF53DBD05A198BD53D71B3D649175BDD59228BC22819B3D97D93D3DC4E282BDA695ABBDF4CC743D58D0273CD0C13BBDA2C7803DA93B00BDDAD82CBD51E4593D94FFA03DE2DAAE3D4A2BA83D675A243B5DCCA63DB24808BC2DA772BD45A39ABDCC09DC3CF40C74BD6D4C9D3C9E76F73C72CF8DBD16D4D43C9490FBBC9927033D10177BBD513063BD94C848BD100D9EBD4B311BBDFBB6CF3C2FE67BBDF1D864BDFABF57BC6D36083DE0A02ABD02872BBC679A953D725D34BD5C2C2EBC35AAAABC5A423DBC3C568EBD2A07B8BD52395C3DFDC1D4BCD622BABD71C6633D5547A63CE924A63DA1D7483CF74D91BD26F9973D39956D3DEBB9B6BD543CA23D14BD943C431416BDF5175CBD1C4B15BD7B2D4C3C9EF82FBD57AA643D249BB03CCD83073DBF3C9D3C137053BD0737473D474BE9BCF74BE63C701024BD5D04963DC28F03BD603840BDD2E688BDAFC9483DF86A0B3CCBD46D3CB5642FBDCBC13BBD553F2DBCD055AD3DA72F933D6F7A393D4F6E98BC204C953C026BA33D2AB6B63D7434A83D3623B3BD37A170BD9762943DFCC5A03D9FDCA33DA7E5DABC69B80D3D433FBEBC1C30A3BD95317EBD62E7F13CA422A5BD824C09BDD97096BDE6DF2E3D8C585D3D5FBCA13DDDA198BCA22A953D3563293D9C26B8BDF5FF6CBCF0D0753D52EA85BAB6AE77BD7514683D3642AEBDB467303D49DBB8BD4536893CA87A6C3DA6989BBD625BA7BDF3CDA9BDE071B5BDDA50203C167E2F3D7C7CA5BD3517AE3D9030EB3C628F58BC3371993C468335BD2DD1B13C6A6E543DC112AEBC0EC2A8BD75B68C3CF6499D3CCB5DB13D7796833D2FF64ABD2E40AD3D2141AB3D9789B53DF97540BD64E2503D384B9EBDF3469D3C18EB21BB12A8613CC62C98BDD75C573CF1E50A3DC2D5ACBB5F760F3D4709A9BC9B8BB73DE2CC86BDEFD101BD748AB4BD900EA33D300CF33B55FDC23CA65707BDED604ABD08458DBD2D6185BDF18C923C381035BD86F3853D186219BDC145B33DAA48253D474D80BBB737A33D3DF646BDD9C4053DB21F1A3D5B1A903D59ECBDBCD6926C3DEE1C7FBC3AA48A3D2C36A03DF2FC343A798FFFBC2C265BBC8FFA02BD214D953D87FA8D3C213A9F3C407299BCD5172F3C34CB9EBD6CC2FBBB6F3352BD1ADCB8BD9EA28B3D74ECB13D1914A93D8EF4EB3C4D23AB3DA35D8FBDF974F7BC86F0DFBCF656573D63D767BD0796793D8D7367BD2DA4AC3DFD2CC03C9B135EBD701F9FBD64A97C3D32F4AABDF001B0BDDF15103D3105DEBCE3F9963D61866DBD23BD91BDF7C1B63DD893E7BB8777FABC68BB91BD1C30063C1C133DBCABA1A2BD8F5B3E3D56DDADBD32EA41BDDC850DBDB79B9EBDF105FD3B97DA6D3CEE88F6BC8E34EBBC6D2242BD1361D8BCC9D3733C479D18BD178DAEBDEEBA053D4B88943D04CEFB3BEBB54EBD240007BDAC01A6BD93431E3DAC5499BDF25B81BCED0649BD59257ABB0F0235BDE1C8743D7EE8BABC312CA3BDCB6FA0BD6D6B9C3D6D11B93D7E0E2DBDA32E82BD6E2FC0BC9751913DA71031BCDC99B63DBACDB7BDCEBA763D745008BD677CE2BCAF9F8DBDEAF381BC9A2E70BC741181BCCA4AACBD150252BD43DE8F3D1FFC913DC10E98BCA325B53CA72107BD59EDB8BC575CFB3CB892B6BD780F1A3D84ACB6BDC2B4933CDE4B08BD153A62BDF3D468BCD46C9F3D9C3E373BC2D3B23D915CADBC9AACA93D2D756FBDA0FBE3BCD6E703BD621F03BDA5E5693DC4BABF3C2D8751BD2E4FD03B1C40983D7228963D657A573D42510DBB7760CCBB27BE513C2E0E2F3DBAEC6E3C0F7F843D1A00DE3C9A548A3D81B40C3D3266923DB4D3D3BCCAA0503CD7A50FBD3E220D3D0286A2BD9331323D29BC84BCF1AC64BDC78DB73D76FD38BDF956AB3D9E52B3BD0E6F9EBD7B3222BB4E3589BD1AF019BD4AEFB3BDC0D5C63CE1716CBD0BD9683DD093053D4A65323C2A1EC73CC8386DBC19AF64BCEB328E3C7DA191BCBE52A5BD5AE0AFBDF3B0223DA02448BD436CB9BDF7EA953D0D3050BC04EA063DC68922BD3B2D973DFA4FA9BC2DD7A9BDB53A53BD6D6118BDA89AA5BD1680C83CABB4343DC9668FBC21A3FEBCF177D03CBB290A3D97D0093D721BA4BD380D713DE4487DBDF2F6983C2DB0ACBD5F04ECB9BCBBD13CC881673DB87603BCC1F5F2BC5A51203C608A4F3DDF89923DC90B33BD075491BD341C9A3CF679D43C08248D3D80574D3D8D643E3B25DA85BDCDCFC5BC06F773BD96FC043DE0F4A8BD68A45DBA2C1F793B7273A3BD0C8C263D34B6E03A3E5511BD26238E3DD8AA09BC64DC143D904D31BD6D22B4BD8306213DA76453BD60B5B23DF559473DFBA99B3D76DDA33DE534553D02838DBC1D016EBD091B543DF5616B3DCD15B2BCBE29A9BD038097BD388D9ABDE58E6FBC49E2A1BCE742183C61CC02BC33A945BDB837183B6CDA7C3D353F3C3D3DE37B3CBF898F3D11EB963DB681D8BCFF9E3DBDD4A9A7BD9C120CBD303690BC9F7BEBBC79C0473B0E1D8EBC4B03CE3CF1A9943D4EC19C3DAF3F453CF6A3A9BCE7D1F73CEC694BBD024429BD2BE32DBD6351AABD3898A53D043E533CF1C4B23DE046AD3DB8F3B33DC20279BD8212373DC1E9853DF5E6C9BCC068F33CE08C68BC6160813D241F9B3C689383BC78DD44BD04C5843B9ED91BBD776A5B3D2B34A1BD792D14BD4EFCEF3CCDC425BD7D4FC93C8DEE213DB44F61BCF2BAE9BB55A140BC2D8542BD90888E3D5DC328BD9631923CF09B52BCDD70A9BC13AE343950844ABC5E2B0BBDBFA5A83DEA319ABD16151E3D01154B3C1B918D3D86879ABDE229003DAAF8B8BD9EF505BDC4BF84BD697DC33CA0C4BABD393175BDB364893D263BAD3D9336D63CDADA8A3D6C8560BDD4F0183DA497773CEF337FBDBA0A773DF791DD3B279774BD3C69C63B4F9E963D55358E3DAB85233D8703B3BDC9F089BD25BB3D3D4739863D68820EBDC4B22A3CE22E673DC02FCE3C9E023CBDC53C7CBD1947EF3AC71880BDAF3A72BC71D904BD9C7067BB7CCF98BC98DF8BBD0FFF073D035089BC6C6FAFBB148F3ABCEEBAC13CFDB067BDAA380CBD16C8133D1287703DBDA52B3DD1E9913D59629FBDD78905BD8D37EABAE708B8B765806CBDD125AF3DDAA4EFBCAEE609BC6A2111BDB222CEBC7F07DEBC8D299C3DF524C5BC449238BD33867C3DDD2AC03CDF0058BD0135843D50F50A3DE80A13BD5455B0BD156F3D3C3CD885BDACF73EBD3E6482BD2BE995BDEE060ABDDC7CB9BD4215943D4FC5153BA09A6F3D9E49A03C0089663DA24CCF3C742F943DD36FB0BC305012BBB5B2A3BC58B953BC2DC457BB2A2A86BD330453BDDBA32B3DA58D623DF87E613D1D93F53CBAEC33BD80D389BD3F2D6D3D758635BD4058933D06787B3BE7EFE53CBA1084BD25CD963D5BE486BC6BF38ABD880055BD96B9A2BC9F938DBCC562B6BCDE37E23CC5491BBDCDD1883D97A688BD0F22C8BC7278473D3DEE38BDE6049A3D5A0AB33D3FDB893CA2A878BC8063253C11E4B53D2EB3E7BC7A287B3D67CFB23D8E660BBDB184673AECE1483D633C29BD4DFD8CBD4594973D0C9A113D761FBA3D6F22F9BC6052993DD956A9BC1224923D165966BD3BC1293D5929B0BD9B25603BF3B1803D58A30C3D00D482BC993251BD2CE16CBDC539BAB63AF804BC22B4B83C366245BD0533AFBD424A8D3DCA107F3C1C4CA93DA0D7713DF34B25BC4575D3BCA429AD3D89F6463D0DAE8DBC733EC8BC5C22743D1CD4993C3474A23D4D80A73DC765E3BB0992B3BDDC698ABCDAAA363DFDC9A53DC0AE4EBDDA83FDBC4B1D2D3DAD0C3ABD81E67FBDB6611BBD228EA4BD0730BABC3D6EF23C000D95BB7320603D8F60493B1AF99C3D02C431BD38D69E3D60EDA73D2AD15B3D4A7F7EBDB609A7BD95D49A3D663C9FBD2B6577BD4628803DADBB263DFE0D513D5FBFB73C0AE0ACBD2E5B853B398EB03C1DF3273D304B7E3DB8EB85BD1E23243D580EA83DD48C133D541A95BBD8BCB73D43F6663D9CA8B83D36A3F4BCD43D6A3D8EFFC1BB47A4283D9E64FCBC14FC1B3C69B2233DA90DB9BD7DFCA63D14A3A43D8F64273D906492BDDCF398BDD504003DD204B23DAC3E35BDB700A63DAFD6FEBCCF529F3D8B18993D503393B90E8B88BD5E5F19BD78C74FBDE16DFF3C20F1B43D37A9073CAE24F83CF20DC9BCEEC37CBD2AF5F4BC5774A23D6505A3BDFC19B2BD6018383D85FD71BDFBD9823C564294BD749A9CBD75987DBBDE4F26BD87C685BD8B335B3C03889E3DED4B21BDE636B4BCF881973D7E59893D9CFDAD3DA1B096BD9EE0B63DBC1893BD120A99BD228656BD15A9843DFDA9093D3C030FB9E4001B3DC5A5553D93DB21BB529F54BDC3CF47BC4029703D6E81C8BC887B363D05B70A3D3A9BF4BC05B974BD1ECC82BDB156923C2B883CBCF93CB13CBD08213DA4A29BBC7A20B93D22D155BD149487BD08017CBD6A0B153D85AFA8BC53AC8A3D53659A3DEF46513D1CDFA73D99ED833DB2D49FBD011C50BDB0336EBCFF0A7C3CABDA06BDB382B0BD88F8833BD6406FBD89BAB63DF9B28D3D23615D3D66F1153D475AE03B56C3973D207815BDA77839BCBA0BD2BC8432D03914341BBDBD27913D575E443CFAC02BBA1AECECBCE55CAC3B0C9984BD256A65BDC968303D6994C9BC0FE4AABB3334F2BB8567023DF677063DEB440C3C048C5F3D95E09BBDD849B23D94E03EBD308ABB3C767663BDC10DA33B20C7083CBECBB1BD07C4093DE3694EBDE4A5B3BC7397B8BD1F45F9BC7110D03C8899023C1D8228BD3646103DA5CD5D3D7848DE3CEEC620BC9856FD3C2FFBC8BC4D98B9BD9265CABC348CA5BDA0BA18BB78EDE4BCBDC16A3D7273503D9F9042BD19D3B43D77A11BBD2501A9BD3339763DFCB3143DB4814B3DE939B43DA8C0323D0E173CBDC45022BD3B10A93D78572ABDA8CC5FBD01243C3D239BE0BC55DD47BDF708E83BD8205F3CD79880BCDAC4F4BC6CA180BDCAC862BD26086C3DBAA9143D6EA29B3D3E901ABD00D11B3D90D505BD0811643A03EAA73DCC2C10BDC66BAFBD0C49C4BC9B269F3D6898783D929B3CBA8F0D2DBD4DD8013DCEE0A93A864B843D3D8EA3BD480E0B3DE95F23BDD54F5EBD0253863D4BAC023CACFA973DA197A2BCD3CD523CFCD1ED3CD97EEABB17AF933DA1BD9CBDF437AB3B96B3FE3C45EA753CA85683BD5D724A3DD2B8C53C4A7284BDD298B23CCBC48FBDA3A4D73C0CA4B0BD022A78BD7FC0893DF867CABCDD6B48BC974DAA3D82F708BD20B6853C061085BD328D89BC2D2848BBDB5F80BD1C5099BCCEC6663D40F6A13D88BA7ABD0210AC3C68D57EBDA5F329BDD119A9BDF300583DC33473BC5706673DF94AD13CB0B5AA3B08421E3CC9176A3DC1562C3D43EBA93D55B9013D432D273C40973AB76F45133C646221BC5B25AC3DC0F4FD3C9F3A873A9F864B3DFF1FB4BD94AFB7BC3E800F3DBBC2A03C090B69BC047FAB3D5F55B8BDCA4EA5BD769CC4BCC1DE58BD591FDBBCDD614EBB89758CBD5115B73D55F750BDCFD526BD6E896F3D3D49DF3B484C1BBD7C2B3ABC9CCE7B3D6AF605BCA0335B3DD0D6583CFCC134BD08B939BD4DD17E3C75326FBDAFC7673DCE8AE2BCF032453D83889EBD9A63E4BC1985063DFC63543DEFE846BD29978D3C58EE9D3C44B4873D390B993D8B8D2EBDC392793D871B663DDE8DB4BD82D9A03BC8C4B4BC51F3B13C8FC928BCB6180CBDF54CA43DCA67283D560C0A3BB8713A3D89D980BD4B1DECBB23159EBD5B8848BD0FE4303C8087D63B6F7D00BD815D5F3C7E33A4BCB9D05D3D8C36E2BCE71F6BBDDC05C7BCFCE608BC22DF243C001490BD6803A1BD014FC43C2CCBB6BDA5DC743D371D983D842A893DE7D2D9BCBAF67B39CDE486BD1CE022BBCE41483D54839ABD53AB66BD78F8833D61B428BDEC291E3D27F6F63A180C73BD1DD618BD346A0E3D3EA6D6BC094B01BD2280913D1D819EBB69EBED3C3F0332BC3B5893BD535B313CB2AEDDBCCC8961BDF8B8B3BC862815BDBDD6173D12E598BDC07D773D86AD93BDEC1397BDB30C8D3B488BDA3CFF0623B9625DABBBE07633BC090BA33D9696333DBDECBD3C13D0933DCCF0893DFFE6393DF47F7B3D411DA33DD4936C3CDAD79CBC1BCD2FBD76781DBD9606AC3D83F9883DD55A1F3CAB8B3EBD56C89F3DC15A71BDFF1001BBAB6E3DBC8B5EAE3DFA478FBDD9C93BBDEFB5CC3C9B650ABD10B894BD42BE87BCE84353BC6157363C0E7FA4BCF3915CBD1C5812BD7163723C39F0033B47BDF1BC2ABCC93CB68FFE3C310E873D1D64673D903FC03C835C4DBDA9869ABD7C8F893D3B9E4F3D695155BD782F3BBCB96194BC2A68F83C04CE743D0A6F6CBCB45E78BD3E1AF93A9F2797BD5699533D99FA23BDDB8520BDD48C853D83FD8CBD6D64BA3DEF938C3D84EC81BDF35D11BD0AF996BD1F5969BDD8DE7EBDD21E7A3C39EB89BC1CACFDBC44C9ADBDFC596CBDB8C455BD8221963BF6D678BDB9E46DBD37E44FBD10C2FD3CB6B741BB8E995E3C7962363DEA6878BD5390023D6A7F623C395B8E3D399CF5BCA18E9C3D33D65CBDC013AE3DB32B933DC4C6103D954079BB1166243D1D11283DDD9D9BBD2E47B13D5CD04F3D21B3FBBCE983F0BC9CFE93BDD7E1053D241D953D13B52F3CCCF7573D3A8D6A3D4139843986AEF83A641272BD804603BD1BF4CE3B716895BDF47DC9BC65EC32BBE5ABB0BC1D3678BDFF429F3D16DFB53D35821A3DE50BAA3CBC75883D408A5D3DE34594BDB77F92BDBB0F8B3DA0642A3A821131BDD632453D871F76BD613D98BA511AA5BD1D2622BCE9B589BC4A90D6BC2BE9B33CD12045BD071C8EBC7F66C3BBCED02C3D5ABDA2BCEF2C3DBD053F36BDE78E9B3D6165B93D1F734CBD45ECA13DD9B0ABBD1223553C5C6AAC3CE4C5FB3C51DB343D7AE6BB3C6D000ABCFFD82BBD764E0D3DB160163DBEE19ABD1DE9CD3C2DD4C9BC3D2866BD95B8A4BDD6B9E53C278053BD19223BBD5334AB3D41A1F93B312E37BD2D54213D9EC98D3CAF8BA73DA82A26BDA9CF993D4020703D6C9AA0BD9F648D3D75ACB23D3F7372BD106261BD1CF3983D4109843DF3B69B3CCDACE33CDC4A71BDA2BC99BD9C9EB03DF16320BD849DA63D4175EB3CE40B653C3F8E97BD1A55303DDF6BAE3DC340953D7662523D191CBA3D9588013CD3964E3D485C15BD6E9A723DA9A2223D661A4EBD22DC3C3D155337BDFA5A103DC1028B3DD97D013D61B26DBC93255D3D48C8B7BD4C1708BD92EB2BBD3ED16D3D113F50BD36EC6A3D6DC362BD58EBB43DDF292E3D5FC20C3DD3BE9DBDA6FA83BD33288D3C200D833C3C87C7BCF1300A3CD2E0A13D03D7AF3C05AD333D28A4A53CBECEE2BC9081A7BBBC78A1BC4B9D96BC59A540BCAF91ADBD90BE46BD94E29ABD8CCAA13DE055253D7F6F143DEF72B5BD1A13AB3DD18A0B3DB3FEC8BBF095B23DBA787ABD79955EBDFC24073D38CA52BD08A5B83D4F067D3C773504BD2FE607BD53DA4CBD6219803D45B483BDAA13543D21DA493D834A4CBDF535A23DD63B25BD2D8132BD652E1E3D324647BD198E82BC8CD303BD5CBAEB3CEFC4F53C172078BDD8FBAFBC3D44833C810384BD5C8F583D14F1AD3D2353EB3C7AB1233C98882E3DBBE35FBDD0008ABDB2B9283DEB61A43D3165A6BD5C689D3CCF89A6BD120C093D960B5C3D7A368CBDEEE234BDB9E86BBD5FD72D3D53F95D3D391A98BDB287F63B184676BD49EF773D264A9D3D4A7E0FBCF42CE33CE5999A3D70655C3D9003B3BDEFBA3B3D1BE3643D112AB73D83AA503C35FAA9BC9D103ABD67D568BC016E2E3DD868863B852A2EBD738802BD5BC3AABC1FACBB3C63551EBCBBE0AC3D67D1C2BCEB8223BC550E9FBB71920B3DC334933D04FDB8BD3973B6BD22D550BD59A145BDB3477F3CDDA387BDDA4E7BBD521EADBDB80FB23D10F416BD3841A03DF1E0B7BD8CC499BC0A1AB53DF9713BBDA005B7BCFFCB04BCE5FEA9BD42D9D2BC32FB803DB0D33CBD81159B3D4D5C953DA579393D09A56CBB3DE84EBD7ECC293C28B3D93C434BB4BD700F68BDC230A6BD23A98DBDB79DA03B0F3C3CBDA15FEABC5F92BABDC483FCBC2112AE3DAD9E9A3CC946BA3D033B2EBC5649D6BA73D0053DAB186FBD2C18C33C3BC15A3DA36A773BDF77903C355136BD300DDA3CB178B5BD6E174E3D3F7E413C7FF95A3DAF5FD8BC4EB655BD049AA5BDAD0DC3BA7298B83DBA26A53C5AF6AD3DBA49233CC91546BD0790A5BDC1F14D3DFAF688BD0CBE99BDC538893D9924903D9E55B6BD188E553D91B6B53D6809D1BCCE2B1B3D6B0B81BD11E50E3D4DA1B6BC7AB89E3D9034803D0D8700BD0021BBBC1FC21E3D7AC4803C5C130B3DC388CDBC159A813D3D3A8A3D47D2373D76BD2F3D36FEAE3D1481933DE7CD00BC6769903D7684B63D9DFF9E3C5A00F2BBC8A02DBBA90FEDB9B02DB83D3DD3893D8A9FA13D9EF7BB3A322D5A3DC4178E3DA4E6473D04C91CBD90B200BCB414033D39F0F0BCF939AE3D8111683CDDF5873DFC6F853DB09458BD906F873D8CCCB6BCC92000BD7DEC283D8A09143DBF3D98BAC9D8B83C8972943D1EC8993D8E77123D44C099BDC9B280BD6C06ACBC019531BD4967323D463288BDAD94D8BBC9F6ADBD5E9FFB3B365BBCBBEABA9BBDA5DF823D70E5853C28CD0DBDEE6D7A3D660873BD83FF94BDB8E275BDFD65E5BCF201AEBDDDE79DBCFACAD73CDFB7A6BD2E7B09BD96B3A43D26479F3D00AC20BC7FBFD73C0B89A9BDE780673D889A513DE67B7A3D79F8E93BD8E8B9BD97169EBDECBC6A3DC3DA743D2F8F4C3D05656F3D0C62B23D3C8407BDC5E184BBD65179BC855800BD8E199B3D32419DBC10491B3CA438A6BD37D551BD07BFAA3D8AD5B6BCDEDBD4BC21B4A73D948B22BD176116BCC309A6BD44E229BBC016DDBC849286BC4F4F00BDFABE15BD6610A83D7B348D3DD045143CFB4DBABD3359453CD03A8C3DC745613D8A49AABDF113AF3D7CCC773DD2CA5CBC0CF5293D28D4073DFAD8873D6AC6573DDF8411BD01263C3D1BF8413D77A3393DF27046BCE56F143CF142D1BC2E7A0BBD9351283D209769BDF3B870BD071C3CBD4B5BB0BDC45223BDDAFB7EBDF696F9BCD29988BD82D81A39B12569395690B43D51758FBD1F2AB13DC0948C3C9293883C6385B33D156882BDB5C661BD4D0D72BD26644FBD2C53A9BC32F2A43DC0EC2FBDEFFC103DCD2799BD7F1CA03D32BF40BD5258913D9A7427BC4715933C92D383BDEE20DDBCDA5B783DB851523C14FA5D3CE50B78BD91F0623D55396ABC0FFCE3BCAA15AF3DD43E82BDB95148BDAB7F983D7116243CA6A287BDC6B10E3DE70240BC20EA9A3B79F66CBD85DB82BD9CD0B93A17B8573DC8F73D3C9856093DB75A4C3C2427663DD51FA23D20C3CCBC715C423DBA5786BDFCC22B3D83DDB73D56D79C3D613482BD32ACCBBCE338A0BDEBB4B73DF39B2C3DF37A3DBD5AA48ABCA793013D2269313D6F5C083D05CA3BBD85ECA8BBD388133D57465CBDE957ABBDD364893B51F2083DAD42383DD438FEBC5D9414BDA95F433DEE768BBD5D86B43DA1C4C43CD756AA3D41A8943D94B12ABC15E5AABD5151C6BB9AD889BDA73F54BDCE91333BC21135BD73BB4ABD197F5C3DE5DDACBDB861B33C79BA24BD7A7B65BD6E0BACBD9D60A1BCCDBA943DD29AA5BDA3BF2DBC6322323DF1D2113C9853023D362895BD91D869BD612052BB48B938BD6CC0EC3CAF7C59BC7150A73D35C09DBD48B95B3C91E292BD9D5BCB3CC50F863D827758BCCF094BBDCEB7303DB8697DB6D73E77BD1E02823DDF41133CB474FCBCD3FDA2BD85E4A53DD13EAB3D83724A3C8617983D7AED163D832C303D028C013D21F0BE3BFA55483DD148B8BDCDFE6EBB635B10BD3F2D7BBDE0FC9C3D29D5883C7C4D193D69C4A0BDE50D28BD267153BD6E361FBD2540B73DDE0F92BD1C3383BD627C003CE493A73D8FD5B13CAEE26ABDB34518BD35875A3DC5E2983D5AB6E7BCA2ECAEBD31FE96BDDABF38BD0E386D3CBB3596BD40A3A43A146F4A3D02AB863D2460903D2BD870BCA4429CBD42A3A63D2859A7BD72A780BD8F0412BC725F00BD0F15AB3C3BE3D53C1940263D14C6933CE56298BDD7249E3D846902BCD7F811BDF428A43D83C7313DA3DC013D9182803CBE91A8BD2932803DE23FA9BD87EF153D81A0B0BD5818E6BCFAE099BD70E70EBD32D0473D9FE3A3BD9ED2913DBABEA23DA3D0B73D80D31E3DD49713BDC1BEACBAB1C2943DEA8C73BD5DFE04BDDEDBE23CF9118A3DB17E2FBD408D133D3F018E3D8DBDB33D7318F23CFEF6D5BC7AB18ABC2FDE423D6B6828BD948FB23D4985C03C7C4B3FBDD46643BD5F52CBBC01E999BDE186A3BD50F254BD79DA49BDC4FAFEBCF845C1BC3F8E4C3C43BBB63D9307893C6040923D79EF2EBDFFF06CBD2427D73C1EB60DBD1F1577BDA89271BD4B3617BCD5DC68BD82119BBD2C6B3BBDDA75A73D1E10B5BDFA748ABD441F1FBC0F7D2B3D54B299BDA9FD3A3D79AF25BD5ED8523C882A99BD4F2DEFBC5FB2253D9AD6A73DD5EFAABD5B80A1BD14A3A03DD20A9F3CA409893DACD0663D06D1653C61F636BD137920BD671A93BDCCABB0BD1162A23C35FEA83C70BAD9BB5DAE353D0BC7983CA9FB8D3DC62F643DF4DC19BD70FC883DF7CEB73D046B8B3CB1AA163DC4EC1B3D0F76AD3A16C31D3D6949A93D244F9FBD0DE231BD47E2A53DC1EC5EBDF1F11EBA8D747A3D6FE8523C0ED862BD8CF1743D768A8CBD31A49B3CFAD4803CFBC17C3D261362BC125C7D3D3E890B3D51D0A2BC492B74BC8C80073DFBAA1EBD80374F3D365031BD813C91BA8A952CBD957476BD99CE203D39B0873CA43513BDA0369ABD02311EBCDCAB97BDFFC17ABD625CC9BCA895ACBDE58222BDF2D3143DA81D693A5FF682BC0324F0BB327C093DF3FB9CBD656CCA3A062129BD9BE8E73C86FEF1BB6FAF58BD37001E3D1D2A7C3D287447BA0A70833D891E3E3DF86EB03DAB8C673D7E74453D458A0E3DA7936E3DC507A2BDD0C66CBC33DE643DC76E703C70C275BD52A68D3D937F943D3BC7C1BB2B49063CBDAD3A3DB77FC0BCAD3A653D053B833B14DB02BB8ACF0C3DFE39AA3BB52E23BC5EC8A0BCE65946BBE47A523DA83EBABC873C51BBAE35EABCD9960C3D44CBA03D11A6FFBC0A9D7BBC26668DBDA5CA85BD86EFAF3CCD8D25BD42B6A7BC3AD353BCD629AA3CA68D0B3D594C02BC7380B6BD9508A33DF5E63B3D260EDA3BD021A3BD5BE3B2BB2E9A863DDE5AA53DBDA9383D881E813CAFEF41BD3F85F7BC584D303CCE7A85BD075551BD92E08D3D11CAC3BC329FE63B4F336A3C7B078ABDC70A9BBDECC2E23CA2018F3DF25DB7BCB2A6513CBE5C9FBDB7489E3D3E4C32BD2CDB0A3DDA50523DAFF210BD1F92323D1929B6BB103D20BD6D7181BDF406ACBD7559603DEB30B63DD9EBABBDE897AE3D91949F3D2F8F1E3D9979AC3DFCEEA93D20D883BDD485A23BDEDDA53DBAB66D3DA5DD883D9590363D1C0C2D3D05DB45BDB8F5C4BC472CD139F64F01BD64E9873DA8BC143D474898BD9EC06DBD6D7C1C3D73076FBD1A78233D59919C3D6834ACBDB03FB13CEA931DBDC9E58B3D408D0F3D440649BD92F012BD722DD9BCD634AA3C8434A63D64493DBD71E299BCE165AA3DF67B90BD9BC25CBDCD9B97BD5C7096BCFFAB61BD4E02573DBE78A8BD2685AF3D69B112BC5FA79D3D2575FE3C3B8824BB94F11A3D8612A13D6D95AFBDFE2C8B3DD34167BD45B5753DCB16AE3CA7A0303DFE83873C1C0D68BDB144283C3044863D001B0ABD12FDE8BB2061ABBCB86A803DE311A73DDC65883CF0C5B2BD1FD8023D1C0BB63D70CC863DC4DAF63B213CD8BB293841BD62A8B2BB809695BD40CAB53C880429BCC399813D31C7813DE1C354BD0367723D5DCD86BDAB7C74BC6A7CC23C9A6D11BD2E725FBD1119883C2891653D27D53DBD461416BC7BBCE03C2ED01FBD4998A93DFAC2613DFEBB9B3D7C18B83DD1CF03BC246C29BB169728BD37A7B43DA10BB1BDCD467DBC08F414BC8F3E5FBC17963B3D29D6A0BDBCACA4BD8A37B6BD96F97DBDE05FF03C38B54A3DE8A71D3D5EEF183DD3068A3D5564963D49B00DBCD630B6BCEBA3F7BC2732AD3D0188FDBC7A1496BD63EC803D6C9395BC5399283D4D125ABC26B0423DE99B04BD3EE6F13BAB73FD3B0AE861BDABE3A0BDF894B7BD4C4B53BCEF6F84BB7A7E3E3CF400A8BC9AED75BC8981B9BDE4CF83BD1A4697BD57E5393D9FA2523D5B23E7BC0800E4BC6696873DA9E71ABCEFA4B6BDCB366BBDD3D8B9BB7E289BBD0B7F3C3D6969C43C1AD7213CD7AB7FBC72E544BD1104EABB1E4C243DC4329C3D0C9A573D4D9695BDCCF08E3C8750A63D142EC6BAA61198BD88B64ABD4929493C6000B03DB33B56BD4A6ECABC56DB723D591287BDCAAB37BD4544D3BC81BFB2BC748098BCBC208ABD132FA0BB0083D4BB9BBC52BD5CE2A1BDBC5CA1BCEA69AB3D01EEDDBC19CA9BBD05D0A53DEA8C29BD83545FBD5214AFBC1B4C6EBDACC6D3BA0F999D3C1EA58FBD8184FEBC01C4A63CD0F8FA3C54FE9CBB3B4183BDF3B098BD8A3E283D9086A43CF426163D3CA8FC3CD625A8BC97573EBC707A843DBA22203D53C88F3DC0553ABC98ED9A3DCE0C2A3D0680A5BD11209CBDD7B5753DFDF2473D8CB234BC643B763DED8A50BC6D8284BD2AF11A3D159C7F3D9440803D3D8686BBC80FDBBCFCB0FE3C5A9188BD694C6D3D8ED7B8BD3289AABDC09D52BDED43903C15B9483DC6B2143D7C8188BD09524ABDD662C4BCD975793DDA6C11BDA4EDB03D9FB56ABD8692ABBDB435DFBCFA5B8BBDF6E6973D386F59BAB912293CEB319F3D6C53B33D0BB88EBDBFB9973DCC4E1C3D6B46B33DA433CFBA5AD3903D3F3EA5BD756E5BBDC11F36BD7020A43BFB1E733D75DCB3BC05B8ACBC9F628FBD8338013D00DD003DDCF5493D9E046F3D57828E3A9DEE37BB063F3F3D3E7A6BBD14DC80BDBD19473D018A2DBD7987AF3DB17A1FBC1970253D974E54BDC9F24BBDB1D27A3D1FDC3CBD614809BD68EE0D3D8968023DB8BCE7BC4C072E3C1E977BBD9321EA3CFA414C3B1FFF443D5391B2BD4C9457BDE41D8FBCAC8CC1BCAF7AFF3CA5D8733DEEA854BD893BA03CE7707B3C7DF0473DEEB1FABBF26F24BD2DD5B0BCC1D0CE3CC7E938BD7746743DF1C4983D5B4996BC8A12ADBD54AF22BD9267123D7ADF4EBCCAD38B3DD50B093DC7BDE33C7E80B7BDAEF527BDECE46BBC6C87A33D1C5E0EBD5C12493D461EBF3C83AFB7BCAD1B92BDB22EEDBCC7A09A3CB89BB4BD4F72B0BD5E7C5B3DDDFF093D17DBD7BCEF589A3C24968EBD30FA47BD3A36A8BD295F073DC4E18C3D78498B3B44BAB93CA0B0F53CD67E0B3DD5674EBD57E41EBDA08B9D3D44C584BDB4C1513DFA40C33C65AF9A3D922745BDC761B03D7FD7A63B5393ABBDC7111E3D1A680A3D144589BC3EC9943CA66089BCC9527D3D4EFE6DBD10A1023DFE1456BDE1AA7EBD6075803D3EFE983D30A4A43C8D6EF8BC8D14C23B2B255B3C18837FBD6BBC5F3D4B6CA7BD31384ABDDB730D3C06E54FBD9CB2A7BD7422B9BC55619EBDBC7AE8BC612DFABC9FFEA5BDE72E46BD1AA619BCBF064ABC0806A1BD6BD0923D629A013CD36866BD87E29E3D85E5A9BD2C78843DF6BDBFBC37D2403B97BE55BDD9B5B0BD87C09CBC6EA618BD0AF52DBDFB568BBBE8DF8E3D5D67A9BDC670A6BD71C3D23C1634C0BC221AD43C88FDA73BF817283DABB9493DEB1E523BD66E233C8C7F9C3D22F31B3C6AC0323DBD71A83B68DF35BDEDC4253D6771143CBB8C6CBD5A973EBC09909B3D611D6F3DCFA6243DE669B23DF576ECBCEEC58C3C08B6B5BD6B714A3D9D620A3DE2EC9BBDD88A2C3D33A86ABCC9367EBD9346B03D6A0BAA3D44D360BDD85135BDF9E4C3BCF4B1373DBC4144BD34D58E3D29FB043D304B543DD8CA823D7E551F3DBCBB883D2C349D3DEF35AE3D9841783DDD06013D1AF191BD6EBA893D13067F3DDF259BBC1A74833D0D27A7BD9453873D8802B9BDF512833DB9CCB5BD1E0F97BDDE07A63D8F88B43D5A8F253DB19F803D6F9993BD0722F3BC8359353B3511A4BDB58CD33BFB09FD3C71A7133D3F72493D66B6643D77F59B3DFC6E03BDE8179B3D54F145BC6C3BADBD2A1F23BD490AB23DA4BB8D3DA4B6993D6043A73D3434823B7A7302BDE76D8DBD653E61BDC2C2EBBC02D39C3DD299D4BCF923AFBD8299613C6318C23BA7446ABDDD80623DCC3973BD3A0D88BD1E0023BD96155DBD1819AD3D39EA18BD23908F3DB5F8833D467346BC1DF0013D6E170A3DD62D853D8BB8403DB7C791BBD4FE863D82C4233CD91CAABDD6E192BCD60E86BD9C59FA3C3E40A03DC4AFF4BCD361C8BCE92DB8BD6C6C9AB9FEC744BD98AA2D3DF2335BBD9414A2BDE92B81BD55F2413D35D0F5394C8275BC0A8F203DF827AFBDAF75003D83ABA43D9BC0A93D012CDCBC2BA9513D1D403D3C35B9413D4B1EA03D72A0933D6CB3CC3C40F2CF3A251751BDE45BA93CEA5593BDE0200A3C06AE6FBD7256AFBD95D8A1BDC5E5A73D4E9F87BD2B24363BDD01C7BB1E762EBC377083BD0AB4143CA227463D9EDC49BDAB1D5ABDE1A88BBDB92D943DF1956D3C9A01A9BD32F8053A6F24373DEB974EBD72F084BCBD41423D798C583D5A378CBD726459BD2B9D88BDCC67953D479B533D6C55863C9E3DF33C6F79B93D978370BC5C67703DC44E9E3C1121E53B1FC07CBD7C8A5B3DC78A9EBDF3FB093D5B2BB7BDB7BD5ABD60B72DBD32CFAE3D00141EBD0D159CBD1917513DF02AA9BD134D08BCF7B1EDBB365B39BCDF6C773DE1C3A9BD82C666BD938EF5BC31C9923C563C8C3D2DC177BD5061B13D841B40BD188E083DEB9A993B3EA9ABBACB1F963D1FA2283CDD74923CD6AAD5BC4BD2A33C891396BD8C460BBC2C66A5BCC577A8BDDD2735BD99F4E3BCA61F9ABD2BAEAE3C0213B13DF9E7B9BD23DBF8BC1310D63CA4A2E9BCF19FC0BC3B30363D95A71CBDB2096EBD4D65833D0117813D8513B63D121575BDA3E0C3BBB31496BD476D0F3DF72FD8BCECAFB03D72149EBD2A5997BD9675B43D39D28DBC455A283D6DF810BD9770A53DE89F2F3DBE0A20BC5E130E3DB5E3973DBAAF733CF97C143D1C4284BDF3973B3D0151893D6B0C99BCB7EDDFBC61229E3C1A529BBD7FC995BD78026D3D58F488BDFFB89E3D1046BBBCFE57B1BC070B403DABCCBABD184720BD8F9C2DBDDD19AF3C8EF5B93DD26042BCFC89433D299A253D1EF3A63D5DC7B7BD8DAC60BDBEFB6E3DEF0DCDBC8BE54A3D385337BD2E7EF33C7A2759BD6AF4993D1F3396BDDF7B043D5F3C413D6677633DDD6E3D3D9A0A8A3DFF319D3DA006E7BBD69CB73DD586913DFC43B0BDCA926CBDF3652E3D3D18C63C1C42A4BD4D190ABB146D913D4EE289BDE913853DA3828BBD5B67B4BD0758463C7AB2FD3C9FDB883C78BCB4BDBB5AA13DFF35F3BC014A713DD18AE6BCE6FA88BD20CBA6BCAFB9883D16A7723C562237BD7DA63F3D7570633D6F160ABDC12C93BDEB87AFBDC26DD9B982FD5C3D11E18CBD1E43973D2F57EABC80F78C3CC167723D372A6B3DE341B03C882E923D49C896BDD8F7693D9BC7B9BDBB8F76BDAFE9863DAAAE7D3D0B17F43CBCEB253D859BCDBCA2079E3DE1BCA43D13638E3C9B4A863D788EB9BD74B3723C404FA83DAA05923D0562BB3C59CF4CBDA6943ABC4A77E83C3BDABABD02C873BC33F16F3DC1D7F6BCB15E4ABD3B6299BB11726ABD2B35B93C6B1D653CF8FD64BC50CB8BBD003A1B3D12E477BD4F6B57BD0260B3BCAB47913D5235A73DBF02B33D9D958F3CB21066BCEB77983D9FE14B3CDC3B17BD43AF8ABCF6E5C5BC7E2E8EBD1A6F5C3D1C13A1BB4F4A9ABDFD56BCBC082F8436A98082BD89208EBDE040B1BCDAE4A93D2A2253BDCA3CA9BD81674BBD5B243E3D57C9323DE4558A3C0B014ABDE90C7C3C8846DEBAFD9677BD6789663D59C158BDA3A24FBD6088E33CCB70A4BC0C220FBCBA3E06BD35C4483D9AFEB23D45554B3D40BF39BDC9B372BD8CB62FBD58E5E73CFF2C62BDB9ECFFBC4D17113C1F12913DFF3499BD817EB8BCC9439C3CD34C4BBD9E20433C57DB223DD06AF23C25D00D3BBE2C5BBDF33EF53CDD029BBC98A0B63B7F60A83DD62378BD00BEACBDB91392BDBF3FEABC687F71BD877A913D199074BD31D0A63DCCA3AB3D8732DABC3F0E71BD10BD91BD5B135BBD585E7DBDF1A0B83C9C0B94BDDA7B5ABD565580BD550B263C5225083D8D6BB1BC96D96A3C46E1943C7A1218BB6AB0A8BD5C9BD3BCC2E184BD34AF913D40C94B3C5FF39BBD06E1373D468D8BBCAACCA03D5F1048BDEBB6423D895AA8BD1F7497BDEAB60CBDE8A383BC0C6DB03DB7F2B93DA7BAFFBC70CCAF3D565694BA29AEAB3D615318BCED64E43B9A34563D3D9EA3BD8A8C9C3C9D368B3D7169583DBA7D42BD7C8089BCCF47093D872FB43CDC158E3D5ABFBFBC3B702BBCE5A181BDF67780BD5962873D530C3EBCA5BB20BD36654FBCD01B233BEDC63B3D67EB4BBD032B583D17EB90BD223B8E3B713C993DE57777BD12DAAE3D006E09BDCF744E3D11479E3D270D323CCDF786B8D023963D7B95A7BDB5780E3CBFD947BDCA28AABDE3C48BBB4B3C283CB66E9A3D284E8ABC400A2ABC224F6F397F559B3D1641A23B1B7E3F3DBC92C2BC11925D3D73635B3D073CCEBC476AEBBCAA10A9BD8ABC8E3DABC21E3D5B298CBD08D636BD213C9BBD5A8CB3BDBC4309BCC115DF3B37D83BBB222424BDD492953B3BCBA3BDBFC201BD3FB1293DCCCA6A3C5E7B7C3DCCAF883D0408AC3D649C3CBC479877BC06E4253D59CB91BD348B8DBC5FE0ACBDD12688BDF54E0B3D4EC4FFBC60A08ABD190B0F3D7A210C3DDD1F27BDDD60ACBCEE78923D037430BD97099DBDB840613D529B1DBD0D8309BD43737A3DC7A25E3DE4B6AF3DD7D718BD7BE737BD057B143DABAE38BDB5195EBC418A84BDFB05703C12F762BDB8F505BDA7C87F3D804E923D844EB7BD350C29BDDE2F5E3D5E539F3D81AAF8BC0EBDB53DA516923DC8F952BC5361383DC21295BD8DFAFFBC2083313D331997BD3EE813BB7AE95DBD638DE7BC015CA3BDA500913DBB1B9C3DCB15173C44BB81BDE9B8BD3CB0431EBD7F8E64BD4E2A67BD30782C3CC14A463D6F0F633DD4A0233D2B4FABBDE68DFC3BC440B03DA4224BBD5736773DAE45163DD29CF7BC3A5AA9BCFC1096BBEFC617BD5C3F4B3CEA96B5BDB0B8693D395A59BC2C63CD3B12EC8F3D2EFB193CCAA215BD33C674BCD4F580BD8B5E20BDFC1B44BD7883BF3B56269BBD4220C23C6A4B813D09E8F53CFDC5B2BDE40B49BDA7C5D8BC2D8AA2BDBD22F8BC8E20A9BDF571533B499B08BD9CE28D3D0643323D86CFA7BC04A5433D0C8F113DE3E09D3D3A55AEBD63D8AC3D034BAD3D9B679BBDDA6F9CBCC21B93BDB04042BC57DCABBDFC72E13CDF30B03D35F5063DF73116BDC5073B3DE0E2A7BC1198843D2054AABD75F03ABDAD30A33DB9DA41BD05D4323D6F17133D575A1B3D51D385BD28F8D53C4E7538BD1933ADBC56D0813D39081ABDA1D4503DBA336DBD7200993DDCF771BDE6FA0F3C8D372E3D9220C33B42352EBDA24CA5BDFC15B6BDEB6A9ABD1905A7BD703159BD8A87AFBDEC8DABBDA63851BDB4AE8F3DA904C3BC453C4C3DCCA0B2BDC7039BBB0E7FBDBA40769B3951BFB33DE96F743D2E9571BBBCF4A73DC120633D731187BD9F151E3DAFE4ACBD9C8A0DBD93B7A83D747F753D3AC81B3C42057DBDB86B8BBD05FF4CBD54E1763D7BC7E03C3F1BA5BC07C8B9BD15CEAB3D906B193DF9A534BDF9D7763D072EA5BDBCAF833DB4FA7C3D9A49E5BC8A302F3DCF528F3D82DF9E3D53EE5D3D8F61443D13D22D3BF8432F3C3387AFBD6729A2BDA795D6BCD8A5173C557C9B3D65F98B3D093F913D569B803D6A4BEC3C46D858BCE376213CA072DBBCD11FF0BC8B9A273D65EE3A3D37D8B63D8DEC553DD888353DA36B853DB1CA02BD508B823C4CBDBFBC39A16F3DD39A9C3B8EEA92BD8D0C3B3D9FC58DBD87A0ABBD710C89BD011541BDB7A82B3D026053BDF06B96BDF7C8683DB6657C3DD700603DCBE20ABD63E1A23DDDC2B4BD219A15BD5619EABCF66F91BDD5651CBC49C357BD12A19DBC637F75BD09F2B7BC45B35CBD3F2045BD8A18523DD23F7ABC93E6243CE58EB33D5EF088BD8826973DDE19863DC10B42BD74F6983D68F3A63C7C4E813D62B2603D880DB1BD6E30B1BDC504493CADA743BC07999A3DDD23A03DDA1F0E3DF11A84BD60090C3D611BAB3BCBD431BDC047803D979EB6BD433986BC34BA84BD265CA63D253F96BDC3AD91BDA1A2F33A99D00CBD25F5FCBB0DAB623D9E39BA3DCD34B5BD3AE48EBDF823FE3C06783CBD68F295BC3DDAB3BDC68E2D3D672C43BDB0AD03BD40809E3D518818BDD51B263D2531C5BC3A39813D87D0753CA3A2B83D1B4EE1BBD93EDD3CC1C5B03DCF4D3ABCAEE6AE3D8FDEBEBC39A4413C7B7AAB3D034A30BD521F93BB0B1FB03DE9BC1F3DA2DFAE3D73A4723DB4B3F8BC2430223D9C9DAFBD730B823D61E9713DC61D9ABD8B14F8BC05E5B33D29F8803DECAFECBCB06B20BD7865823DF246A03CD71BBA3D820CB43D5A63A1BD3446C63CD2EF7A3C7372E5BCCA5167BDED1E97BD7038F6BC57328D3D6262333D4869AB3DAF36A63D47E1EABC38A4603CD39DD33CE79B86BDCBD6C4BC853D313BD3CA933DEA82C5BCB253533C2ABC683DD6DEAA3D4898BCBB1C687D3D6C8A593DE545983DF576AABDDF6950BD1FED033B54CD2DBB0352463DF52835BD4B2DBCB96A10A63D0E15A53DD0D16C3DE17871BD014BDB3C689649BD2661BABD72E64DBD7C717FBDC0108D3D0A319D3C31E681BD04968ABD8643CABC243F75BDCAD80BBCC98EA6BD0232673D23AF3C3DA38DE73C1926BABD348EA2BCE43D9EBDFE057BBDC14C6A3DEBF136BDD7C3A13A72B897BDB72F643DE9E77C3CB738DF3C896D953DBFA798BD4AB5B53D0AC5D2BC51396CBCDEE65B3D1B88953D4D7FA33D13CAD33CCB92853DC4DD2B3D9C59A23D7172B4BC91721F3C93AA843DAAA3B0BD3AC817BDB67D933D98B739BB7DCA3CBD81B436BD39B7B8BD22A98BBD4FB94BBD9B43483DAD9041BDBAE9A5BD11CC2BBD32B99A3B2716153DDA04E93C86D684BD02C9ACBD5D528BBD65448E3DDE10C93C65E280BCBF3C943D77850B3D864FDEBC1A0119BBB40443BD07E4B9BD9DAF94BC2B3B7E3D266EA93D376B4C3D46A446BD8E6E55BDE50DE83C15085C3D9E889FBD971BD73C90A964BD60349B3D239E5CBCA56AE53C65D336BDFDB8933DB48291BDDFDC83BD88D9B6BD99ACAE3D11D736BD2409F4BBB0AF443DEC8D04BDFB2F10BD577EA53DC4A4273DCE8D3BBD4A7299BD1886E0BBA66E72BD14CA9EBDF62E963D299B013C1408A5BC2F1EBFBC5699AC3D9CAB913D9E0486BD46222BBDFF70C3BC76C0443D6A4952BDF093603D3D7486BDEBDB603D4ED13D3C89828F3CFEDB803D01BA593D62F997BD5DF8FFBC395430BD6CB9F9BCDAA53D3D1698AD3D068295BD9DD1563D5E768ABCEF0814BD1F0B59BD7AB08ABDB6F77FBD97B2453D2A31443D5BDCF7BC7CA590BDDC09A23B88EE3A3D79FF32BD685EB23DF665D83C3D218D3D0FE1853D8C5534BD9C46B0BD259B833B4605C9BCABCA5EBDB641CB3C85B8393DA48B96BD91156C3D683038BD2C3D82BC572D1D3D6C24053DB823AA3C103AF83CE61F923BDE57A03D947C5CBDFADA5FBDAB1BB83DA0BAAEBDC4A4233DD6AD8ABD721878BA4D94A9BDF3A66FBBC68713BD9692143BE06AADBD748CB43DD36046BDEA13A33D28F49EBDF719AB3DED30C13C49463D3D0E2C33BD1FD38F3D29C0573CC0558C3D9A156C3D40EE81BD58D137BDBB2A83BD9FA4BABC7DD2AEBDDA9547BD198633BD9277593DEB559D3C457A88BDA14359BD1B83B6BD65519FBDF5EFB33D18B862BD9A91B2BDF9B452BD8B246A3D2DB996BD0FE06A3D72FC31BD7118BEBC47E71FBCCAEDEC3BA051003D203BAB3D24801EBD5AE08FBD0D98B0BD494A303DE43B9F3DCD1C5ABD3C16473DAFA6923C0820463D48FE383B7003153D7916B33DB4D229BC2D13AB3DC90C0FBD2E23963D9B7453BC56F41A3D9300193D6730B6BA808E37BD0D708CBCDD49AF3D1A3D68BD70F085BCE23246BD4BB89FBDBCA44FBD36CBCE3B64E68EBD51348CBD33F1B3BC8EDB0C3D699AF3BB06B5113D744B6D3D863DA53D0344EABCA3CB6F3DFA89ABBC37169BBDE291673DBD61073C94B4B2BDB5CBDA3C15C2B2BD1E1E953C100E8E3D5B2B633DDFD48B3DADF12EBCCFA1513D4F1F933D5F41A9BD3CC22C3D06B60C3DED614CBD88CCAC3D9C6F8DBC44A7DF38525140BC817903BCEEBD443DD43F393C4DDD1E3D8DB9333D0468813CABA65EBD0B5EB6BA2BE3E5BCB1918C3C16A9E5BB326B65BBA18A6B3DC424813D1374193C65D29FBC14D546BD9EAFB9BD6E7E9ABD57A69CBDC8FC8CBD69B99B3D3D7D433D0AF76E3C49331DBD3D7929BCF5CA273BD5FDE4BBD4A82A3DE858473DEF76A2BDC5759E3DE059C63C230E5ABDDBACAABD1C8C913D1D7E1FBC01A183BDABFD0E3D48A9B83DDF55A9BD452D58BDB4387EBD9775463DAF307FBD07D1DCBC0446B23D0C26F83C7A410ABD4EC7883D5F386DBC494B6B3C8A674F3C4D99283D7AF516BC42F314BD06D606BB55454C3D734FA9BD90B3773DF6A60FBC72748C3DB530883CA78FA43D7170863D49AD993DAD876C3D845C9A3C8651B2BDE2B7D93BD39BEB3C3ABDE13C5EE5B83D0E6B5D3D25C8A3BD5712813D84D662BDFDFAB5BD380271BD06FAB43AE0AAB33D40FEB0BD9D983CBD69AFD13CF820203D7DDA8CBDBD77B13D0C57B73D20F0B93D40009CBD5F4239BDC150883D16E7473C72F7DBBB20C293BDD5DBB63DDBF8FD3AE5D2B03DDED2523D7D893E3D962A743D9BC386BC9E62F8BCA1CB5F3D5A4A5ABC222708BD976E0F3DB2E9CC3C2F8F0D3D8233B4BDD10F81BDDD805B3B59F704BD5C75DE3BC3FDB43DD4794EBD890E8C3D69666C3B0B8A99BD50D8E13B7F30883DFD6573BD35D149BCD492B5BD660156BCF3BE1F3D4BD8F73CA0D701BD61F5B03DD6F8B73BA62D15BD75C0853D70D8A83BF3B50E3DACADC13C323938BCC4E8BD3CFD4986BC6103983DE5EB13BC50A2513DA831AF3D2AC926BBFB3FD33C92E78E3DAA10A3BD57B63DBD3083093D9FF883BD9CFC923C2F09653D9BF5CF3C12D581BD07DF51BDA05F063D68248F3D506D98BD5DFB60BDB2D481BCDFF8ADBB8BA8123DE2FDA3BC52DCADBC46998C3DF1AC61BD5ABEB63C0EB096BC04B68D3D50E769BCE7BE57BD4C83A5BDFEB57ABDC0B3A6BD02D16A3C37A757BD836097BDEB0063BD7704663C288397BBADD00FBC1054B7BCC125A6BD009C9A3DA331AD3CCF4896BDC9C11DBDC2F361BD54CDB9BD6D200CBDD3AA83BCDA9D523CF2DA19BD745E6ABD2EC490BDB2E4B33B1C2480BB9973B73D79A3A73D00D4D63B55595D3D2B3F91BD9CF89BBBECCF743D307230BDDBF5C4BCAFF3FF3A173C83BD901F30BCFFD081BC666EA23D5D6FA53D51B372BCFF7F89BD51ED2E3D151FE8BC33BA53BD19F12FBC95F2803DC8EFB2BDDF4AAB3C37D4AA3DF1EDD4BC8576083C732DFABCB4D6053D3D49EA3C853F9ABD6F6B373C9102293CD42FADBD38EA943AB278AC3D90E5A23C0AD9ACBD36BB40BD57CA7FBD8081ACBBE545F43CF332E1BC6C644B3D4BE885BD887AAA3C410A9DBD741B17BC8FE9BB3BD300B8BDE7AEE0BC05986D3DBDEE8ABDCA32C2BCA8B68A3D2227D83C1646A0BDA9D2843C1112B13BF289903A134D67BDA3B9A73C5E75C43C8966B83DA1BA9B3DB55582BC1167A7BC0D631C3D1FF803BD656FABBDE35C03BCC19EF23C7CE5B73AF42215BD5A0636BDCAD496BDDBA2873DC3A3ABBC638DF53C4091A8BDC29FA93D816E733C402AA1BDEED9B43DA935563D9BEE933DA60886BD71C40ABDE2EE943D39439BBDC49D02BD13C8B9BC54866C3DD0965C3D45E18D3D8F8177BDF6BFB1BD74C6C4BC86BB8CBD54FE2D3D7EDA96BDA5AB7E3C95919CBC0BAEB5BB7DBB88BC83C09DBDC8F1A33D378E293DCC8D2B3DBC100FBDAB29ABBD0F09ABBD2DC2A63DC3A0473D27F6643D12C543BCB089EDBC3D20313D0C678F3D3CF046BDDF6547BC3DD1F2BCD26A543D56AFA1BDC98F483D516FA93D933ABCBC1345243DFB06873D2510223DDF22973DB56D583D6E67A23B3B3947BCC0C3243AE12E93BD1CF6A53A5192A23D7165253DC0F9B43DAD7C93BD62F5AEBD87B4E43B64F403BD718A8B3C7E277D3C6481263DC7B5233D44EFD1BCA31A27BDC66E443A81CC613DC6A0713C786B57BDB3C04E3D3FB79CBDEB7E963D8C9EB23D3F5AC83C4C7CFDBCF76A2C3D6A6B71BD33EBB23D830DE53C6E140E3CEB359C3D275C0CBDC06E8CBC3AB9003C57CBA33DBFB759BD39C86E3D346A7E3D21B9AEBDBD9D603D4727D7BCBF6A44BD8147F83CA90D493DBB3BCE3C2B8D00BDC97BB7BD22344BBC8941313DABC836BBE72BEEBC86F7B7BD222E7A3D5721643DD3EF87BD507891BD192B453DDEE575BD151448BD006A00BD0D6CECBCEE0FC9BC591F0A3DC92F0FBAAD4D343B937300BCE33E18BD02EBCDBA8C9906BD8D44283C0D65683DF14C843DD95F16BD53ADA33B20B9AF3D3D9B193C1504803D0BAB943DAC966A3BCAB8E53C8CBE083DD271AF3D634841BC80F59DBDF27EA6BBCEA6ADBD46BE533B19B0CBBB50BA91BDDC5D813CBF16BABDD8EC703DF14AA83B3A7C933DDF8B8CBD8C2B00BCEE8D1CBD4AAA603C8E67B1BD8165EE3CFA568C3DBD6CEEBA8E8E373D83FBB0BD40B3E1BA1F9DA73D0812ED3B83017C3DB32CAFBDE83F6A3D3A8EA2BD6D7B6A3C8D5896BD44138B3D198DA43DFCECA73DB097E9BC8C58103D29440A3C7E6C8C3BDB72BC3C8A7114BD3B5DA1BDF23A913DB083A23D998C953CB41B4CBD1EFA34BD00779C3D53FC52BD8D6F683D86A381BDF16D053CAE0268BD0F27ADBD763BA73D3657B1BDB19599BCCC9DA63D265A9EBDC083B53D857286BA7EBCE4BC1F67933D13FD15BDDB10ADBD246C84BDE19E843D7BB8EC3B5F8E133C83419CBDA7BBA93D78A3CF3C2FAEB6BDE165B43D6EAF4FBCC3A76CBDFB67D9BC06C2BA3D367BAB3C1DBA7EBD631C763DBBEC53BD0A1D023D6646BCBB6668A6BC550F243D313F993D11397E3DA4BB5E3DF36B9CBD2F71C23C1A2C5EBCE69083BC68DAACBD92DF89BDDD709B3DEBA3923DBDE6E13CD2838E3D6DBEFE3CAA55AE3C462F25BD191E36BD3484103D9249273DE4C30D3D4DF88D3DA2F231BB677E19BDAFB6DD3C8FFA3E3D4150DEBC9699A8BCCBF59ABDEB4CBA3D959A33BD4B3E29BD6097A33DB6B63BBCECD7A73CB95699BD0BD7943D779259BD5873C6BC36305EBCF668953D916B853C0D874DBDB883AABD8BA1B43DEA9E32BD898C613D0DC4DE3BCF6A54BDDED0003DC512903DDD73B3BD5115573C1AE3AA3C8905493D6877C6BCC797B93DC157B53C4DEFCA3CB55CAC3D6D90AABDB456A8BDF7E36FBD86F3AC3D3E93683DEF0992BDC38DFFBC6455A6BCD9D280BD1AB5ECB804FFB23CD174513D9AEAD2BCFBE3A53D21B1053D9B2730BDC9C082BB7B610CBD4806753C20EF9DBDA00BB7BDD107023DE7D524BD750C973D5F40713CC594A03B19E09DBDF369D03C7996AF3CABA409BD3AA084BD9D8EADBD6D5B003C3A9B7F3D4C3E32BD3F3399BD2484F03C335E46BD233A9BBDE4B889BDFD8C6BBDD41AB43C6CE9493D661945BD672D92BDEE0371BDC08F9DBBFEE363BD05CF9CBDA7DCB6BD02B221BD027DE63C7CA5943DC3727E3D700233BCA2BB04BDE3C45FBC30AAA4BA587ABA3DE0D1B23C0D15B5BD2548A0BDCF6E33BD588F89BCBD7C213DA1D3883DC007983DF98B213CE57C883DE5A6DABC04E5A2BCBA11203D7E1450BD2F6EABBDB2F09EBD97A67BBD2A3121BD6322013DFDC7AA3D04A6A9BD5CD6443D15BF52BD5354293DCAAAAFBDBB2399BDA766093DBB1990BDE9854DBC14600C3C154489BD02FF82BD272DC53C83A24FBC16AEB8BCEAE22CBD12A904BD7864A1BD77A603BB107D5A3CDD78B9BD0B43F4BC2FA20D3D501576BCAEC295BD4D446BBC89DC44BDD52F25BC57E8B83D87A18ABD2187E53B060CD23C798D063D43A9A0BC5CA6CD3C16FB93BDCA229EBDD81DB13BC18844BD40AB673D557EB13D3E3D99BD327405BB502C043D1A1475BDA5AA283D5981B93D4173F53CA0BA98391A395E3DBAD4B3BDE3566EBDCDEA61BDAC949DBD4B69473D5330223DC007183C93D1AFBDD8D827BDFAF168BC685173BD1A4F833CE53DD13B7310843C0A68A2BDE290823DCD5092BD035D873D4374AFBDED7A36BD359DC53B5B7C30BD321BAF3D47912BBD8F399D3D1339333CFFC4C1BCD1739D3D2E2464BDC309523D3F4F76BD67F509BD1C9EFEBCD794333D2EA6203D439D0FBD1FF5233C4DCA613DBC30B1BD8471183DCCFAA13BAC2129BDFA01033DD51633BDB1353F3CC6E63B3DDCFE453D8CB0B3BCED976DBD02BE12BC15BA393DA22D98BDA62D16BDA9BF85BDC0CBACBD43D299BD2EDEA23D40E1A63DF59F6CBDC94BC73CF2F80B3D8C6A91BD072056BD98027F3D90BA553DDBFF3B3D578AA03D4EC9523D585E093BC10BBE3C705A9DBBE96A6DBDF0B9953DA2B33C3DFB18873CF15106BD7152BABCDF7D373D6FD8E3BAB3487BBDA4FA0A3CBB9099BDB1EBFA3CF7544C3DF5481DBDDD119FBD2AC7843D41852CBD4BD609BD9CB5903D82365EBD83D75CBDB37CAD3DA5B3983C3E5C163D5CB730BD65352A3D7E2BF1BCB89FB43D8058B6BCA71B07BDD0D0B43DDE0EECBC6F2E903D70D6AEBDF365B2BC9ABF813D3CD8B33D39C9AABBF90866BDF44CAA3D88B541BD296803BCB296F83CFFDEA93DA820BABD4B4C7EBC5AEF61BD2C80E7BCA1AEEBBC5145A9BD89F5D23BAC7D583B00892ABCBC9127BDF7C3AD3D203C3F3D80FD98BDBC6380B9DFBA123DE971F2BBE9E54EBC8E380E3D1375F3BB4EC570BD61FFFBBCDA7AFE39271DD6BA0529AFBCB37D873DBBEF453C84A0D3BB88DD7EBC0C691A3D4EB4AA3DC6684FBDC267DEBC1F13AFBDB4B11BBDB486B03D7CC1A8BD910C3C3D7ED47D3DFF0D93BDB70F74BC7653B2BD3C12C9BAF6FE93BD905C9A3C3FE068BDE91C52BC8E6510BDEDC1AF3DE13C383D6EB0713CF53E31BD4D2EB6BDD4CE6EBCAC39223DBDF949BA0E75D4BC81C4993DBA2A4E3CD8829FBDFB14283DC20E66BD1F7B3A3D9B8651BCF5052DBC7631E7BCA38EB0BDDBBD23BDB79EA9BD6F34C2BCEF1A003D267066BD97FC9BBD9076043D5084DBBC7C8A1FBD5FCCC3BC847A93BC307502BD159D91BD0D6981BD1598B7BD7124A8BCC115A9BD4C023F3C2001C83C0832323C1D5EC43CE37CAE3D901091BDAB6C513DAA1A08BDDAA11EBD44C3DF3CA5F2CEBCBD65863987A8573D347DBABD09CC453D9906A1BD16EB53BD0968773C893173BDBE9257BC5D6AF73CE0E7EABC3C7DB73D6E4F2CBC5A92363D88515B3DD3932CBDAC7FF5BC960A893C7006C6BCADA6B6BD9874DD3CD559083D230B86BD5482583D13B685BD49D3503DA5E63ABD76D5823C4F4845BC5EF08EBD39539FBDF0C326BDE5AC41BC103F8DBDC0FF13BD9C0836BDA9D26DBD43A07DBD66C834BD21C8993D0AD5B53D410FEC3C750F9D3D0D1EB23DD9ECED3BA405273D581F053D1C7A9ABD091595BB89D472BD4A04683DCFF122BD31E8313DCB173F3DAEA1653D8937ECBCAE384ABC9A62103DF319D4BCE83A383D4216863D87DDB43D99800FBDC52A03BCDA6491BD5014A63D9DF3AD3D4CB9ADBD9EA2293D1D7DA53DA2FCEE3CF2CF6EBD349EB33D9511A93C5C3908BD7E2A25BCB6390F3D6E6B563DE314DF3CC106A23D834536BD87A11DBD2535973D3759A5BD42A9963DF66563BDD78E763DFD9D75BDBD49B63D9F71743D2080313D4447A3BA3ABE363DA89376BDA5A6A43D41DB963D23871E3C5290A83CF2A9A33C825FB2BD847E6A3D5766963AD993933D5F1B08BDE36D89BC3AE7413CF0ECA5BD7A849ABCB5132D3D6F2C49BD95FA943CA0036B3CDC84033DD1D848BC2E70923DDAA5F83BCDDAD6BCD8E99DBDB78167BD7135E6BCC1EE0E3DA3F7B8BD7AB8083CB44C49BD203D64BCDF9668BD5E3139BD85DEE738DE76C2BAC45A46BC6BB49FBD69E6953D11FFFDBA69B3FDBCB9D84F3D4030513C606206BDC95E83BDFC07A73D12F5EC3C627987BDCEB2613DB3969CBD43F59ABDFE05A3BD4103D0BCC92B95BDC039423D446C92BD6D3C89BDC7DAAA3DA137B03D3C8A783D8236AABD057A11BD1095AA3DCB198B3DFACC743DF6414BBC960F653CCB7F183C980C2BB95E14923DB0DB8BBC8AE5AA3D2E3194BCAE62143D4E8CA33DCDB697BCC27B32BD22DF9B3D0E4DA73DC4ECB93D4158BA3D52F06BBD4BB6953D5F043EBD1A5E413D8242963C9515633C66BE9A3B702478BD502A543C84F237BD14A327BD1352953D1BC5713C5B6FEFBC52E2A33D6DCC173D2EE14CBA37E5873D3AF437BCB45DBE3CB29418BD1D512BBD8971593D436988BCDB01323DD3346DBDAA650EBDCC587D3D3181E8BB4BBC5B3D86BD113D884DE73C98C00ABDC55532BD1772B83CB68462BD56A9053D032E9FBB778D7C3D292A93BCC956FF3C131FCABC8EF190BCE1468F3C020E9D3DACE73DBB0FB4793CB9868BBD2D27AE3CC012A83DF145923DACE063BDF87CA1BDF90594BD4B45273DF8AC5BBD9CC1623D91F50B3D612E67BCD17CB23DD8DFCBBCDC468B3D7B1BACBD2E00A8BD213CC73C047CF0BA6253B13D6D93F9BCB5DD19BDC919253C60B51E3C5798953D58BBD73CF1C9A0BDE36785BDE1354F3DB55F663D9E3AAC3C1BFD5E3C27F33A3DB6B1973C8EBA90BD35258E3DC5CC3F3D76B1B43DBE8C89BCD09880BD0C6F9C3DE0DAB8BD063BF5BCA2F05ABC2E889A3D901FA73DD481B2BDB97A253D25E8AF3D5A63363D2A34C7BCE1B802BD3FE5D73C1DF067BD8007713C6269F43C9794AEBDC4AFE33C3851C43C9FDB05BC69AA4C3A36B2FC3C4B8B8A3CA514E93C2BC7463D7E39AA3C2984683C8502053D4467A3BD0365A03D28606B3DE828D3BC70B47A3D6303B13D5AAE51BD6276013D1A830A3C9DBEA73C502C0EBD30B97ABC549C8FBDD4D992BDB4C0753D60DCAC3C2D64B0BD94829ABD5EBC913DF145043D14D436BCAA6A813D86D3533DC5353F3DC5400E3D9B1D0B3D818CB1BCE1C2313D8343403D1D5466BDD8F782BD8A5E733D69489F3DD3BF1ABDE87A45BD822B923DCF4596BD4D317FBDE90920BD5CB99DBD1B1A80BDDD3B913B4967B5BD70A1A8BC81DE7F3CD8C1EEBC66154ABD75FE123DC9E82EBD6A0CF03CE714283BEA34ACBDF3C026BD7B1781BC1008DC3B241D9C3D2410BDBB0AC4833B7EE3943DC049B1BB9494FDBC381F573D571BB23DDE18383DC880EBBCA1DF3EBD4507A6B9139D113D693BB23CB02A7ABCF6F84F3C8CDCA8BC878CE9BC1943703CA93793BD0BB9743D07FF3C3D9F0A2C3D13326DBD34CECB3C54F3B8BA9146073D3D53E4BCD8C69ABC2BCBAC3A7FA0423C4717F3BCE199DB3AD70B52BC712D5C3C8400A1BDE264613CD443963D8D15283D34ACA63C3D08CC3C881AB1BDD74B83BC1FD1273D6E0885BDB36275BD57209ABDB275823DD8CF9FBD8E824D3D6C7A71BDC526B1BD809DA9BD8BA369BD1323373D8E928F3CD5CEB73D4EAA91BD47CA973D31122ABC4BF6913D01A6BEBCD63CB3BD5D20863DBCA54D3D64ECA53DE714A23DF202A8BDCF13BB3CFDC88C3D9CA48EBD62DB953D55ED7DBDA992683D4E64153DCF89ACBB158C8E3C392E85BC4AB53CBDD372083DDB5E8F3D10628C3D2B99143D9D0395BDB9F758BC476DCBBC64DCBE3CFF87B4BD12ABB7BD7559CFBC0C75603DDDBCA33C247E753DE585A23C93C4D0BAC11E933D3CBE713D9D04EA3CD8E5F23AF68B19BDCF1B54BD59F444BD037F64BD23AAAD3D23F90A3A761D8C3C9CB48E3DF409DCBCCE7F9C3CFC1C4D3D320862BD5F97F1BA99214EBD305F903DA162C73BA7F78CBDA7B625BDF5089BBC3248DEBC9AF52EBC5D2DAC3DF7C54FBD7205BABDD867473D44D7B73D0CA08CBCCF4508BD64FAB8BD8B7395BD5CB83CBDBF5405BD9E530D3DA9F8793D7DF285BD6D43A3BDD8D57CBD2F20EA3C8F032C3D4129D83C0A5798BD490A7BBDF7C146BA14DF55BCA2176D3D8BCD533D527A9A3DEB8CD83B2F11493D2064B6BD5A3FA73DD4D8223DF1D32BBD5BE093BDB71A7F3D63AFE23B36FC75BB00DC73BD4D7734BDEEDBEB3C545A14BDB2E6F43B5CB4943CFB64603D6BAF823C556A243CA69EA33C72B21F3DCA64FDBC3F591CBD61C6773D13482ABD50835D3C831D833C619B85BDFCBA863DB800A2BD84F1073D0EF2833D2E513FBD9A70763CA1CB263DCB17233D27175EBC980E503D8009D93CA4752BBDFA46863B2D1A4C3CA706B0BDFD9A92BD228E333D162A8E3C09CEF03C4C08263D59646CBD90BC3ABD3D808A3DF831ECBC3A1BAD3B79A4803D4DD4BF3C56866BBD722859BDEC21A0BDA63F45BDC696BFBC5B9D70BDB7BC62BDBBE3843CA057263D5CE681BC7CB4FABB9A3CA0BD639A3E3D05638FBD6219CE3A2D2A54BCF62533BD3241873CCE49B53D00C8A43D290FA63DB8CAF1BCDD4F53BC2EA9983D38BE453D89525EBC6AC8EEBCBE027C3D6596BBBB1568A03C2575A6BDE8D118BC7CE771BD615A963BC02F483D49AEB6BB6C27093D874A693D9B85883C75784EBD68D36F3DD364B13DFD2F82BD9963AEBD18AD77BC1EEA5BBCFF6A483BC10DE6BCE55E85BD0FAC63BD84E9823DE3C8103D97C848BD7ECF33BD38AE8C3A3EFD42BACBFB5BBD8AEDA0BDE74D423DA1B6A7BDC47FDE3B5D425ABD4A8A7B3DEC0F8CBDB19599BC948781BCF843EABC7F2AF0BC60D4A2BDCB3F393D98314ABDB62E96BD3739863D6E2FB43DD05C68BCAECB7C3D0A83173DCAD422BCD7A7B7BCCF6DC23C940F74BD3742853DD9FDB8BC0F57043CA0E45DBC129F35BCD992F7BCD50E5ABC1F39AC3D63C0803D9A15373D502BA03DF72E973DD5548E3D23A341BDA1AC19BDDC6B8EBC8F7BAABDEC27523D7E17093D1A75153D2C6629BDB496C23C607FADBDE677A23D3732CB3C924C35BD56BB403DAD1819BD9FFB30BD865B163C2C4A93BD5CA92DBC3795523DD57A243DB88A213DA063853D84EFA2BD3980853CF79B143D7E9B9DBD10D3133C3E572B3DB0D5F53A01E681BD25D6953DD8AFA8BDF867743D740E85BC1B09623C86ABA2BD938924BD432BF43C42E4E03C23EB5CBC6EBDA3BDC2173EBD78CF9D3C70F62C3C658D2EBA8C59F13C33D5CCBC3392EA3B9C721EBDB3058FBCEB3B623D8052023DE3034B3DA856493CCE91A83D572CB6BC3B5CD6BCAAE68BBBFE3BAE3CB523743CE4CD4A3C32A1A43DA9B1AB3CE95CA0BD2F199B3CD4D2143D29E2013D0A1F833D1E97E33CB481013DE6B730BDABB949BD682D43BD1EE1DCBCB031783C05739B3D476F3A3D537C63BD5225AF3CD54A3EBDADBC9A3D347086BD5750793D1ACE97BD0FA5AF3DD5CDE2BC78404CBC1F742A3DF7639EBD8283363DF263293DA416073DB7ACA5B9C863A03D34B2ACBD4602893D830B8BBDA5109EBD6D90C8BB77E74F3D7EB139BD998123BDBF0BA9BD3EAC8BBCAEACA93C7163ABBDAD2E553D8D8B60BD49E2833DBE1EBA3D9A83493D04F6763D29B488BC06B16BBDC98BC9BC4E8A8E3C050B0C3D52D4533C4A58A3BD2574923D5F016D3D3A1091BD3D2785BB7CF5873C17AE40BD26DFA83DBBDB38BCF88930BD236CA4BCAD507BBC4BA8803B09A1B0BDA70BBC3C7B16A2BC2B620ABD864FB63DA90837BD1F97F9BC3094B6BD1AE092BDB022A53AADD5C13CF6A5B03C355C6E3D9AF1413DF50B9EBD13A2403D89CD6DB8F3C6B83D3057E13CB02FAA3DCD5F403D27848EBDD60AB33C783D94BDB20460BD05D0A9BD678D86BD498C5EBDE24842BD288A32BDCAE912BD5FC777BD6755893DC2B15E3D233A2C3DE0023E3C516D92BD286FDB3C131BAD3D2680B23C04A8FEBCD4BABA3C04BC92BDE2AE91BD6EF59EBD59782F3D4BAC5EBD393A433D2133283DA792263D8F7701BDE8BB12BD29616F3DF10C8EBCDCB1D33CFC6C97BDF46EC7BB5FFCA5BD0BD7A73D56A240BCB5B0A0BDDA62093D167E7CBD944F7D3DA67C8CBDA3D5F0BC49B94F3D43B265BDF115413D9917063B2443ACBDF828A13D9A1CDC3BEFAD8B3D8BC6AD3DE6BD4CBC3FE6B63B313603BDDDDF203D82E668BD82CB01BD9E08423DCB060EBDF126AFBD83DF443C888C983DAB18DA3C7208343DB9EBAEBD3DBBAEBDCD185CBDA277F0B9E7AA1CBDB535133D6E1D493D7C52A43CBFD38B3D2AB0A63D1720983DAD7B40BCE2C4293DDD1400BC9C5922BD436DD8BCA78C46B9393DB6BDAB50873C74AF1B3D34AFB83CF47A383DCE29123DDECC85BD1982033DF8924BBDB2A663BDA20DB8BDFAFE813DFEB47B3D50DCFF3A7D0120BD53EFC7BC8FAEA0BCC4969EBDDF2183BC9720373D97C5773DAA66303D32E028BCDC960CBD543D16BD838E9DBDBE04923D62E0CC3CDCCB8D3D30A985BC9C6E7B3D28C1993DF9E3CBBC27105D3DDC5DA43DFC6FBE3C6FE414BDA60694BD9559A43DB684B3BDD94D313D303743BD6D7289BBA0958B3DE18ABDBC890089BDF11A38BD7F619C3B1F28A83DB7FC22BD6E230DBD2C6219BD907B1D3D03D994BD343B80BD6CFEB7BD28ECB33D2C09B8BDCC3BED3C1C55D63C4F202E3D082F16BD417123BC20AAA43D967CC3BBC300A3BDA6E39ABD9C03A53D1B2B4E3DE9E741BDF18CE33C1D2F533D4A52C73BD720B43D840C993DF973153DB43B1C3DC7B07EBD9629843D18AD693DB643653D0BFA96BC2AA1EBBC10043BBD8362A8BD1063863D25F79C3DEFD8B9BDC460A2BDC7E10E3DDE8FA3BDDE2A163CFA5556BD249F23BD43650D3DF187B9BACC623B3D61C227BB25B639BD1D0B943AF50A5BBD219780BC60C6A5BDE5E8683D074DA9BD0E60A5BCA14AB2BD347BA93C4E6A69BD2189873DC76CB53DCF6192BC9FB0853D803C5BBDFBB8A03DE63B353DA6EEA13D25AFAEBDBF63B03DD5A174BDAAF0BA3DED6500BCA0AB00BC043AF83C9B09EBBC9F63CE3C6F7744BDC39F923D5C9F21BD6029253D462E583D4A9DD73A4DB961BD8167AABD5A47823DAAE51EBC4A6EB63DACB1B23CA159B1BD01C4773C3831FC3C216D8FBDB333D63B7DAED5BC235783BB8EFAB63D3B92D33CCC96B33D0EC167BD04FCAFBDBCC600BD97D5293D8807223C89060F3DCA09493D08E6023CDA734BBC166F033D80F683BDC602B13C9603AFBD2FDA873DDFCF57BD01EF5B3C4D34513DB7AC99BDA8156F3D8031E5BCA3441B3C513DB9BC0DE0E13C3102B8BDDE447FBD87BAB2BD762182BDD65CDABBF0721DBD2D8C95BD4AB42C3DB6D1833D116939BD4875303DD69BAABD6A106A3DCA7311BD0110B5BDA132EFBC2CD33F3D032702BDFF7680BB80F9773D0EBEE0BB0322E73B9B0274BD2F4C7F3DEC11CE3C6D4E453B579BE6BCB86B3BBC7DB9633D6CFC9D3D6AA482BD37EEBB3CF529D33C2AEF2EBDF0E1113D199B8B3DD786B83D38841F3DD3F184BDA4DFA4BD9FBD3D3D8459A1BC5551083D2C8040BD2CF8BD3CB3BD2EBD58B64CBDE75E9B3CAC560FBC386A0B3DF79617BCA7BEB03CD4B457BD49DA0BBD04C9FEBC3553F3BC346084BDCB4D27BDFB99703DF64C9A3D2D1F38BB7672A7BDA384903DD6EB60BDD8799A3D9C8DA9BD262E8EBD11E7013D984B333D4F8FEF3C914C803D4308943CB494483D98B3103D42F37E3C57C8B2BD85C3AFBDD3BBB0BDC0D3ECBCD40DAB3D65F057BDC4A26D3C1FCB0C3D9D7CB1BD2BC0A03DF864823DBC3DE5BC8473C7BCC8AF8E3DB39C163C414262BDC8B57CBD4C50453D7E6547BD94641FBD40A021BD496D713C7BA581BDECCD813D2DF2E9BCCB010ABC9361503DE9ECEBBC0991D4BC04685C3DF437163D8659C4BC7BCCA83B64235C3DE84896BD3FEB02BDEC7A803C53358FBD1B51F9BB6239E4BB97B502BD3B98683D58DD013DBFEEA5BD5E7B233D54118C3D2561A53D2B64EABC8FF1B23DA70609BD59FC68BD992294BD2FBE533D9BED64BDE6894CBD507230BB1B4271BCACF3BABD4BF965BD184487BDC4DD0B3DC9CDFE3C3AD0C93C9FF90F3DA67A893DC98EDEBC4C22ABBC6F9CDB3A373181BDF9D85C3D556EDBBCAE0E6A3DFBE7723DC17A8C3D0852B53DDC67933DF4456A3DAE289EBD1223783D33318ABD0EC8B0BC0E52E1BC62B071BDB2F89ABD9BB412BDDA9B6D3DB365B2BDE57245BD75639D3D525687BDB4CBA5BD334531BD76F9B4BD3EF774BD949BB5BDFDE124BDCF4DC8BC2DAC013D98899DBD9516293DC9B0BDBC6B3EC93A30E8B7BDF698853DEA0B7EBD28A0903D90BA16BD59292B3CA477133D42678B3D0C5E303B4A61943AAD03143C3EAC64BDB0CA83BDCAC4443D310A57BD059FB0BCCBD787BD0E556F3D3CF227BDEBC99DBDA159BA3C60CA3FBD525305BDA344C2BC573DD53CF04CA5BDE7248DBD283595BDDD70563D32CA4E3D0827993D0EA2EB3C18362B3DAEF6B0BD74100CBDFDAB0ABD440012BC200B8D3D67DE243D533D11BC737191BC68AFE5BC7420863DBBB683BD335EB13A122B67BD5C7E9A3DDB70D73C9D7C3DBDF1E35ABC3B75913DBABD103DC5D79FBDED490BBCA6A8793CD3A07E3B360A143DCC11803D0F7F253DBA2247BB521B313D3C82D83C425E6ABB8BC1E3BC3858E9BC8D42AF3D795793BD9F0B8B3D2726A83CE228973D57D9AE3D4920193D4F7CAABD2F05113CA77E97BD27A2743DF485B2BDBB1B6D3D765F25BD229CB7BD36E0B5BD486B0F3D8C904BBD783C4D3BE19821BD46EEBC3CABA133BDBFF6DD3B7EE06E3C2CDFA2BD7190E23BF9F47FBD324485BDBF92DFBC1CF2B93D08339DBD8BB4623CD6499E3C4E36EC3B29E81DBC17E9E93CAF36073D6F8816BC30ED233D412AC2BC01DCABBDB7803EBD90BB803DA8BE38BD74DCAB3C69A45B3D81A8EC3CF00346BD4ECEA5BBEEA898BD79478ABDE0E55BBD1E8F8E3BCC9F95BDD7048EBCD91BA73CDFFD54BCB6A4F53C949C3EBD6DF50A3DDF8F813D80E8933D2483D63CDD300A3DB752213D765DF2BB2542AF3BFEE9A63DD99C603D4B18BABD026ECE3C603224BD49DBA6BDB4350ABD2AF101BD1B8BE4BC4861AE3CA196EA3CC655093D65617B3DCC75623D0E8C973DBC8751BD7965323D9C307E3DB2F091BD7093023DAE1A70BDCE8707BDEB6DCBBBB984AA3DDA343ABD63A9ED3B383C55BC12A6863D38ED3A3D1F2834BDB41E953D8C0882BC9A02033CF5F646BCB777983BA69C993D2FBE8BBD91E5A6BDA3BE91BD297592BB3A0648BD28FE5E3C451296BD5F8E4FBDE9EE93BDFB788CBDCAC504BC6731953CC362373DFEAF343D7879903C8F1200BDFAF9B03D2212AF3DDE32ACBDE07234BD235D143CE6C5E1BCF6A1813B7CD3553D28FAA13DDAD9043D3AA0A03DA999C9BC64D1B8BCAFF64DBD7E5133BD5048AB3D418E27BC064751BD8FE12D3D6199893DCBBBB33DE986A5BD67F8FDBC30B67EBCA7F872BC088E5E3D586E30BCB634B83DEAF65C3D0122A2BD9F6544BD352DA03DAC244F3C474803BDC62E4DBD3F95553DCB126CBCA58A033D25D743BCB6FB89BD585BC5BC83875D3D952EB3BD0228063DAB27403D7368D5BC32BD833B51B245BD8B234CBDCD6CE4BCB5128F3CB9E8053D74062EBD347B57BDCB0D3A3DA933B83D661929BD906DEBBB75D8BCBCE1E8F53CCF90A4BC1B183DBDEC67B83D30E7AE3DA00C24BB5C0DFDBCBBCFA4BDCC4AB1BD3254CB3CDF60993DE85D89BDA423713DC6D5D13C7281A63D47C4D03C6587F4BC6E648ABD7AC2983C28474F3D56DFBA3D77C69ABDFA5E6ABDA77D24BDCC5FAD3D207B463A17D388BDAA1E3139750AADBD2141163D43B10EBD94DBD0BCE69B9C3C5D60ACBB2CC60D3DFC09693D26B3B83D3993F03C744CAE3DE07A9C3C99CF5EBCAD18B9BD50C76F3D7D51233B510B4CBD8B1F20BD0238B8BB0A6539BDCD80AB3CE51B863DA1011E3C54EAABBB7712DF3B0282553C074C72BD93AF593CDF2356BDC06565BD800427BB297781BDAD8B32BC23E709BDD35DC3BB81EF8B3D382CE93C49FD093D6F9E59BD06BC963DE54F7C3DFB3C99BD8CCCCF3C0353D6BC02DA6A3D69BC0B3DAF8929BDCFCB5EBDBF064D3CAE0C96BD3D0E413C4BDB3E3DE0428F3DF6C129BD8885913DCD4F9D3C3C09313D3AB7C2BB8FCEC93BBD7F403CBDDB993DD835053CA077893D84F68ABDF78D07BC7FCAACBDC8B5D9BC954525BD44F0A5BD11D274BB1DB882BCB7ADEBBC26B90CBDE549A33D660981BC9F07B3BD3C0EAE3CA2897CBD0D964F3C54A9FFBCC969B23DF03703BD326E9ABD2A4C08BD0F57083D202A3A3D82B99B3CF8883F3DEFF3B3BD088A51BD7CEA8CBD3E418FBD3AEEB23DFB49803DA4B5113D76218C3D7840923D7053C9BC2164563D0ECD4DBDBC825EBC212D0D3D24358DBD1F559ABDE7230B3DE81388BD997C80BDA6B4E33C465D14BAF07F87BD77F39A3DBC5D8BBC5C74AABD936260BD0C246C3D1F594D3DF6AC6A3D44CA8EBD815AFC3B92EE7FBA22AA1ABD14DC243C651F5C3D88B5963D38C977BD3AE3DE3CC476E53C549476BD8F2892BD1E5AFFBC4EB94DBC0F0F79BD558D983D5AEA813DA376BA3C8DFFAEBC62F8513D3F3FADBD50014D3B2D115B3D266B42BD3E720F395724A5BD7413683DB3A719BD2184A5BDD6607B3DCAA251BDF5745DBDE39C853CAA6AAB3DDCBE7B3BED096FBDBDF7E7BC6DE308BD283E963D5881BF3CE0A68A3D7262433D5F21A43D93CC42BDD68E8D3D5C3DA53D85D988BD4D9E68BD79C3A43B230A87BDA76D073D3424443D8CF6F83C225F7EBD2DF6B3BD6D0D8BBDC552053DCAB7193D10A16CBC476046BD2F2AE13CDB1653BBFD0B67BDB7A98A3BDD42B93D8CFB9D3D9BD99FBDC1230A3CCEA5843D591C4DBD63DD67BDC3AD4FBDED9B7DBC1508C33CF6D4E9BAE1E7D0BCA9164CBC398C9F3D825D95BDDD8AA33C8A6461BDCCB9CE3CC59030BD8C10B83CD4D7623D1D83B8BD65A2983D3658A2BDDEC2CDBC125FC4BA8DB5B83D586148BDA876A23D0DE94E3DFCB9903D6B7ABABD0D48DF3B0A728DBD47E8683D7CBA813DBB608DBDA352683DDF58A33D101214BD693C063DB6557B3D2219A7BBCC99B0BCFB62833D72E01C3DDD49DB3CCC7E5A3CF4CE3CBDA3B98EBC06DFE43C8315A63DF8625BBDEB9588BDA83D00BD444B2C3D07BE0DBD4C8B99BD764F9B3D196B393BB020C83B2D909E3BC25F993D7CF8AD3D13E061BC8F2B4EBDC78F1F3CCD30813D6447B53CC02F323DBE03863C5D0A81BDFDE7D13C2B5F86BAEF53243D6D7981BD159D1E3D6409A5BDF0EFCD3C107C833C3B7A72BD4B1B373DF1D2573DD81E573DF14EFB3CC91842BDF9EC153DB56633BDB1ECA1BDD9B599BC743C0CBD0874A53D07E73C3D0B335B3C3B279FBC891736BDF4DAED3C6532A2BDC5B9B8BCBD37523D4DD44D3D0D92783D07662DBD25F2993D8BA79EBC32598C3D34A4303D366C06BDDFF6053CA1FF073DF527AABDCEB548BD4B25B8BB110A91BCE4DD753DCEE59BBC70AC33BDB1C68B3D5B6C5DBB3A926FBD907D87BDA048163DFB5E0FBDC3AB923D0405E3BCD74B203DCDF32FBD7B3896BD70A9D63C05931CBDCC7C33BD51B5F6BC8F6A8B3D18F810BD4F15FF3A9B35BE3C57DD58BD3BC98D3C95C68E3D5566023D8274273D34B13C3D0DDF313D7927B13D158E12BBE8FD70BD92A5B93D931E043D9EFD29BDA0C99ABBF64698BDB72E533D7330493D8BE62FBD87339B3D8DB694BD44086ABD68AA9F3DD26AA7BD8A2CE9BB3B9AF33C19A7413BE01E793D91E2B3BD2C074EBCCC543C3DAED8D03C2D36A73D4CEEAEBD104949BDA355A03D1560A13D6CD3D43B580CA83C42A456BB257CA63DA924013D1AF906BD4705923D93842D3D9CB0193DB7465EBB9694D83B4480523DD8E3F73C81E6CE3CF5518CBD5AEFEB3C0A29243DF9B05E3B1406AB3D4F5C6BBD94FD0BBCFBFCC63CD47D34BD115FCABB0154D2BCC4CCB3BDAC0AACBDBF1ABA3D9A99613DC6A4503DBBC7B93CFC588C3D41DF2DBDB695863C2382AFBD5D1EB73C2D5E3F3C233F0A3D36D1463DCACE9FBD061F933C139CB63CE5AE9E3DF0218DBD360191BCD4BFC53C9F21B23D219274BDADD9ED3B39B92DBDD9E091BDEBCCB8BC02C955BDE7197E3D66A40ABDD6A679BDCC9380BCF656B03D6E50B4BDE7045DBD394804BDBB19E1BC598778BDDEF414BDD32E4EBD814412BBCDD165BBBACE9F3DC7829E3DC53C123D22299D3DB7C2DABC18DEB2BD8A16B8BD99A3FABB7C1A88BDDF966EBD5BAD833CF38D97BDF494813C7A2C02BD6F2C50BD684247BC3330AD3CC90D313DE4868EBD3106833D579BB33D98815B3CE76585BD793BF0BB0DF983BDC953F5BCCB59AD3D0FB494BD2D709B3DC01B023DE29B1E3D0EA12D3D77686FBDE65A763D2D11B5BD1D02153D27CA4B3D8122A03D8A58E6BAA5611B3D6189B3BD53F254BD17609EBDF4DC66BDD1FFB3BD2D32A6BCBC77613921C8DCBB91ADB23C05C8413D8938A03DB5B73CBD5D44B1BDB7C2ADBD382717BD19EF39BB1A918A3D5653343CC464FDBC5B8D79BC19A5993C3CD19B3D9A2F483D768D913D59B646BD0E1FA23D9A9698BD28E18CBB8215C83CC3429E3D6F324CBD761AA2BD8425A83AEADC06BCFB85403D646D16BDAC958D3D0E8DD5BC6116A63CE54189BD1F4012BAD90EA33B6DC1A8BDA2DF9DBD34F3873B5206A4BD2C1A96BD654216BD505F483C54DD543DA6B1B5BDB6B52A3DD092653B05559CBD27567E3CEDE1143D3939B63DC04682BD713673BDFD42B13DE1E1A93CA8D825BDEAE923BDB34C443DDAAA853D705F913D66FAB73D8831B13D6C2DE73B911E6FBD6F6436BC61091B3D27C8A43DA53A85BD66D4BABD2A02763D3CEA933D61097DBD8E4084BCC94AA93D3DBB82BC1074AE3DCBF59CBD039F83BDA2E46A3BC493F9BC338175BC582A053C2AFF6E3D4F77253D694FB4BDC54D553DE38E77BD719760BC54222BBDBB56C8BBF14941BD36EAA3BCDC3497BDB7172A3DB3A90C3CAC0B3A3C9A73133D277088BC52E12D3CC2EDA03D78F651BDDA7679BC1F80973D9C0EF8BC28F79D3CB1A00BBDA29B023DA2FE61BDFA6695BD97B7FA3B57EEB439E6E6ABBD34DCCF3C5F1CB83CB247BF3C592ECC3BE8D3A0BD2B13643D6ED53BBDF98D9B3D6F7752BDC19284BD66319F3D0A9EA5BD48F78E3DF1043EBD4E8EEFBAA42BBD3CEB037B3D47AFA8BD3F0B6E3C44B881BD7568C63C13D78CBD39A929BDA3C81EBD0890273DB3A235BD31BE92BDE9833EBC8BFE73BD11FA7D3D85696D3D9043763DC6F9F43BCEDFF4BC1FCD09BD9230883C286FB8BD767237BB8376E8BB2824883DFC2796BDAAA660BDE9D2463D46A158BB9C021ABDF556F53CA732ECBBB021C6BCFC7666BDE1A3B3BBDCBBB8BDB26030BCDA7685BD13D57D3AC862903B1BC369BD616311BD5059F7BCC5F6893CE9EBABBD657641BCEA79033D4D2F89BD069181BDF0A57EBB8BD135BDE51C543C2C1150BDDCAC3ABD7666B8BD488DB3BD0A652CBD2889B13DA63066BD46C944BD1ACBBABB44F2233D11BF973D7C6F893CCB66A23D58F18E3AA342F93CB678603D0198D0BCC54220BD1B286BBD381AB5BD49F34BBC5E4487BD47BD9D3CBA8CD63CE2B6A93D5AFD603DFB2350BD23716CBCE216AEBC61C0B1BDED8C493D7D909E3DC91EAA3D9E0A01BDA6E32ABC0641403CCA3FA83D5BFF27BB7EA4A0BC97108BBDFCE9B8BD67964F3D531237BDD70B85BDB2BC4A3D168518BDE451A13D1476F33B8114863D015E14BA256561BD56DA9F3D1C4B8E3B323162BDCD64B8BD68F898BDC43C71BDA1519D3C29E74C3DCCE4443DFFF8993D3E43AFBC00B3EFBB229BB33D28F760BD25777F3D2C48A3BD39E2D03CE9848E3D5EA66BBD6F5853BD4452973DB4F3AF3D7C98063D2BF430BC2787EDBCD286A63D0E46923CB23C343C5FCFF4BC06E709BDCDD2AB3C04908E3DCC80383D395BA73A89B936BDD879493D0E0407BDCEC25D3C9546923CE95D90BD2346803D231CEBB99AF25CBD9A87EBBC5CCA86BC7487163D5DA1A3BC3C16B7BD9373323CDB880B3DB8AF43BD14D7DC3C4A4E413DD85D22BD57C592BD7E0B18BC93FE9E3DCC698F3C465382BDEEA9C13C07600F3D09392A3CEC9B03BDCF8DB73D62F6B3BD1D32AE3DD729A43D00334A3D0EAAFA3C653520BDA7027FBD830F75BD8922F83C316B3E3DB45FB5BD3A493F3DF09912BDA36FAB3C9C37F13C7DC766BD6F7CB3BD2331DF3CFC10B9BDC2BDE03C97DA2A3D95BC723C6D6FA93C309FF5BC1105863B119594BDCF878F3CAC2D5CBDC62C6B3D9636DDBCA62164BC4ACFE5BCA987983D23BC60BC9885B03D2A885A3D63F66A3C77AE80BD32033F3D1DD39A3D0D9C8CBDB8709F3DA67AA33DC2D6273D91EC133D3AC720BDA354CD3CFD5470BD6257A53D3E9187BD2FA850BDF7FD99BD60C6163CBB54A5BD99F67D3DD77981BD8AE119BDE8106E3D2CD5813D497153BD495A6DBC9A03EE3CDFB78FBC22FF3ABB6A83A0BD3EF2A0BD6C03ACBDBDCB723CC6AF22BC41C894BD86C7D5BB696D9ABD19E62FBC9EA05DBD2FC3983C5D8CC5BC88D1473D5FB3233D4D0583BD8AEBD23C24C37B3DA1BC41BDD6D9B8BDAEAB23BC115D68BDF0AF843DAE429ABC7414993C0B1A0BBC1D9F94BD229D963CC0476C3D4ADAA7BDFF0194BDA8EB9D3DFD389E3DE3ECF9BC21B35EBD02AE8EBDEBA7FCBB28AD873D0B7F2E3DE639843DA54E70BCDF061FBDBE59C83CF1B7A8BCFDF20BBD7D501A3DE7F418BDDFF372BD81D7833DCC73653D429F1DBDD462B7BDB55BA9BC913C79BD7FC9A83DBDB23A3D688A78BD6F55B83D9BCF9DBD332BAFBD949BB3BDE07616BD453C3A3D27FDF7BB0780A8BD7BC1CFBC24F191BD852802BAB9396BBD473876BB4A1BB93C239FE53C5FE8A73DD7E3023B33393D3D0F8A9B3B09EE203D97A9A43D26A82FBD7D1691BD506C57BC068C1BBDE518523BA629A03D7D35AB3CFC3C523DC39CB0BB81C2D5BC420F8DBDCA434F3D23F2A93D6E67A8BD4CC083BC7123B03CFC051D3DDA28BBBC21A11A3DA60D5BBD613A993D809A333D249D953CAA719B3D55154A3D60F1843D8AC2043DAFE7B3BCEB6F5ABCD026043DD0278ABCF6F002BD14EE3B3C4AB80BBBD98321BD94FFF63C8F96953DF63CF839F2990A3D062C1FBDBCC88BBD970D90BC12102EBD720B843D96B28BBC79A338BD874EAA3D1F75B9BD1277973DA1313F3CB4FB51BDAFBD86BDB91D73BDC5DC713D7713B3BC96E98EBB67AF3C3D2C669E3DB6607F3C3A8B74BA5970C4BC09B3E83CDB6CFCBCD1D32FBD82B3B6BD0D4A843D01BB38BCC4439EBD531A773D3EFA7E3D20B6ADBD6F3BA4BC2A3353BD4BE2F4BC5CC02B3D180AAFBCDE2A853C34DFCE3B836FDC3C2BBE4E3DFA2F35BC8012953CF79AA9BD7E8733BCC090A33D15733CBC2354663DFA47F93B02B9873C0499953D6D99B9BC4285073D82C1833C04C7B5BDF8467CBC7061A8BD211F103D9DD591BC6B572D3DC0C9AFBD836C92BC98BD693926C6ACBC1EFE173C2A79463D0742CEBC39F732BD3BEB053DEC28AA3CC4591DBD001E9BBC96DC903D37D99ABDDFCF8D3D6A9597BB29F45E3B51EB9DBD2A735C3D7854A03D6D4B183D2E28A33C07C6A63D6D97A3BD2B6AD43C1FD1043D3009853D4973B23DE1ACACBD1EBAC03A8FC46EBC1D6679BDE3DA923DF6D57C3DF3938DBD75B40B3C2FBD0E3D9B43A43C351228BD1D68A0BDF986823DD66F90BD69C53FBDB663DFBBBD58BABC741E483DB7DB8D3D488E1B3DFE30813DD49083BD3AAF383B925DEDBC2EE0863D89DF48BD6B2CB43DAD5D783D012EC73C938048BD19B782BD6054B1BD8413ED3CA4DB803C93B28D3D6FCF753CBE1F4CBC074247BDA317923D12259A3D4B74ABBDEFD79DBDC177A7BD786C833D5C5FC2BC411D523D95569FBD2FA9F23CEB368EBD2768CABC762FCDBC1488123D1C59033DBFDC743CE9BDB53DF048A2BB4E71AE3C37BB91BD960122BDA71D8CBD41118FBD9F6CE6BB8D843B3DD1746DBD2C00653D94AD83BDCAD1863D62976EBDC0409EBD05D96B3D29BBB9BDE0B2223D49E1ECBCA058103D2B4304BDE136E3BC8176E63C9F6F913A665D263C01D5EFBC27997D3D30D71BBD8C2C65BD4FB94B3D91CA5EBD55B35ABCE59D773DC2A391BDA4C5D13A06D5783D04FD8A3C4B0DDEBBE89350BDCF778FBC8B908FBDF5B1B93D85CC5B3DF90B903D4EC9873DB023813D019641BD0571B2BD4C4B603D8A57AB3BAB52883C5D5AA6BC69F572BCA9622D3C716E9FBD213DB2BDE8F69ABCC633BC3B9CAC893D3E68783D71090B3DE00F773DF7E6CB3B2EFE693C7CF2003DFE39FB3CDE39AEBB4143613DE5A823BD65F58B3D9C7EAE3C699EA53D74E88FBD3E76AEBD5C607CBD6BA358BC1962653D4F11BABD9A72ABBDEDA0EF3BDE018F3DB63CA2BD69EB3CBDF688013D742ED3BC3FDD263A8603A9BAA65907BDE5E1353D5113C83C4597603DE42186BCB09E013D80CC5CBD6EAC923D2C14803D40AA683DFD8B5A3DEA98173D951A6BBC50C411BD0C4115BDA96DD43CF5B166BCAA197ABC7F52EE3CBEB1753D96AB503D4DAB86BB4A65193CB6C6853D11B42A3D04C67B3D643A233C1196343CBC0080BCE23641BDD5BFA33CFAB89F3DA6B8B83D9630493CDEA640BDDBF78DBD2EAFBBBC011CFBBC3472D13BAD7547BD1BDF3E3DD7426BBD0B0182BD4AD2A5BD4F888F3CAB5B673DB3BF6BBD2FD315BA22EB91BD3F7FB33DF53741BC3AF6A13DDF2889BD75AABA3D190AB93DE530B33D5D2F533D802E37BC5DA3B33DA722A1BD1C8401BD1C83893D48FC1B3DC69F173D1AB7C33A9800343D889D393D02B4833DAFD5123DA18C8CBD9FD71C3DC228E53C919B49BDAE50883CA8DC743DEC3DB73D1B4CD53BE75964BDCC48B1BD9F140A3DA39362BBF51A1DBD78B121BD5E1EAEBC4099C63B01D68D3DBDE2F83A905BAB3D931DC13CE39D6A3D59D3673D636EA33D577B7A3CA60894BD8158B4BDDB9CC63CDF90573B2780333D9D2CAABD033C063DE7A1403DD8BB93BDB72E17BC61049A3CEC67FFBBE0190F3B755891BD3FAEF0BCC5AB5EBC66EAC43CDA1FFFBCA8099F3C98D1D7BB601C3A3CF7E02DBD2F86583DF3DB6ABD0871133DC3E8AEBDD97236BD3E048C3DFA1517BC988488BDC87CA33D5DEA6BBD2209AE3DA4D2A43DCF22B4BD0B59A9BD68ECCF3A4E69A0BD16636E3D2E2527BD8348B8BD6BB3B4BDA817B1BD292433BDC8D1A7BCA4ED5ABD485AAE3DE194813D87AE85BB0833743D81F41CBD68C8AF3CC433B5BD4166F43C07278EBDAF61983DC833FE3C07FA7B3DD8A757BD2DD6B4BD912EDE3C6FA4003D5FD96E3BF96F923D55D4563DE2900DBC5BD93BBDC6AB1DBD3BADA63B35E48F3D1A0BA93B9D3670BDA14025B967FB723D0ABB853D138BABBD38623C3D64C2133D366E80BCDD21C13CA4E5A13D4503F53BC5349DBDB0901A3DCA253D3DC3815D3D323B9FBD215E99BDCF2AFC3CB3C1AC3C3350473DBAEFCE3C369FA0BD332F6D3D9D05A4BD134E263DBA22183DBF0494BCE8E6B3BD2582CA3C93EA4D3D5F384DBD2077053D6E4A973DA9417E3C636C883D298556BDFB1A8EBD43EF22BD50E15C3D63A335BD1CDDEC3C311E4C381D1F403B3AA4A23B20D661BD6D98303D1C6214BD88525A3DB7619EBD19E92B3D88F67A3C21955EBDDA17273C7ED2C03B1A38B63D51C589BD9888983D961C9ABD0208483D260A1D3D048451BD7787A63D5BCCE13CF80D913D2096833B59D58D3C1C586EBDA43280BD96C5593D45C3193CEE8CBD3C0D7A90BD818CBFBA3445833D3DF9573DE11BB43C7077AB3DC9E452BCEE0C0A3DCAD6343CAECC3C3B2A499CBDE81C353DC228A13D1824CD3B9F68A7BD98B0FE3CE03B8E3D19494C3DCDF6403D3BEC693D8E25A13DD37EF8BCAAEC463D957204BD01F2513D38B49D3CFA921CBDE17318BDFAE96FBD6B7B093CD32667BDB6E2A23C5FE5743C9BBBF73BBFD060BDFF564CBDA7F8B83DBA87633D51C707BD2A47E73B75F59ABD1FD0833D7153823DD97C153DE27791BDC192B33DCE1785BDF8C3653C79D09ABD14DDACBD58358EBD18BCAABDE47235BB3A5CA7BD113A52BD635D84BDEF5D33BDD93E1EBD900D643BF4E1FCBC17578F3DC0DC0C3D19BE2A3DA3E4533D195888BCDF7EB53C227F803DB7C0ADBDA7745E3D50E994BD73F689BCD1EBB0BC9A678C3DCBF5953DA3A883BD96B4CF3C8027B93DA8E0993DA7D64A3D63E063BD565709BD517317BDEB66A53DF3D2BABCB47F3C3D44DD083B871A133D53A763BB291895BCD288043D230F3D3D8AE46DBB25F444BD48C99EBD0898A73DB64C793DC741EA3AB6B96FBD056CD1BC7E6CA0BDE66B36BDB0C37EBDFCE7ABBD45026FBDE591B63A3E130BBD4D05DC3C759E3DBD6D5585BD40559DBDFE3384BD26F9B5BCD41A693CE820A1BDBBDD633BD16131BD5BB5233C57B697BDE71B5BBA5DFEA7BD3DF4CC3CE469293D587D16BB4DC14DBD071893BDDFF5373D880292BD64E6F53B0D09B33D4057383D2768B9BCC8722DBDBC4E09BD9166603DBB5F89BD55AC24BC609984BD2D17833D8CE9033DC7B8773B56BDA4BD890E6F3D2F87953D14263BBDC80A133C625C54BC178B23BC08D3143BB51AB6BD1A8165BB27B748BDE113493DB7B93F3DB0F341BCDBA593BDD169923C855DB93C11D79BBDCFC3B0BD52F1D1BC211A843D07811CBDF997693D6701063D0E76A5BD4D79AFBDDD5980BDCA69993D4ABE96BD9EEF343D99C680BCA7B25F3DA5BA41BD7C61313C0990883A3CA357BD15C5043DFD488E3DE8B3113D201161BC1511373DA8A0803D1BC5D2BC2EABD5BC292C143CCF6F6E3DC988853D3AE7413CF05D9CBC46112FBD8E6730BD2D54B8BD48FF01BD155C0CBD3B4EBABDAE4F9C3D3B3AB6BDB836403D29F5B83DCCF311BD78D8F5BCD6240E3DCA25163DAE32393D6DAE1E3DAA72133DB2644E3DD98B163DE5B543BD92149E3D5505A03C4D3EC13B915BDC3CF5D4C0BC4F07793DBD20A03D555A78BDB6F9013DD0F3413DE00A8D3D4175CFBC7110A23D91420B3D6624A2BC59B4223D5246123DFF2B9F3D45CFED3BE90D0DBD332B933DA9C8613CDDC46ABCCFE2A63DBE8D67BD821619BD68CE2F3CBB80B23D931039BDF8BA77BA4501D5BC15DB713D5F3F8F3C4A8A65BD13BE8A3C3C8382BCC38D633D131726BDFC1F7ABDD8CC3D3D22A4B0BDB5770FBD2E6E483D600B9ABD3774403D9225B2BABB29423DE27F0A3D2A20593C887DC5BB380C02BB49B830BC5C3128BD0F18193C04BB263DC293B0BDADAEB8BDBE20073D207A60BD665E48BCE25500BD70D8B23D88FB69BDE3D19ABCB8979FB9BE4A7E3C867D51BDD247703D9E2387B9D7BB823DE34024BDEE5FB8BDAF473E3DFF1071399B5B2CBD5AEE96BD21FB9B3D8C519C3C20F88ABDDC533F3C925F7BBDD9B89CBD41121EBD0315BC3B9DB8B13DE5DF9BBC3611AF3D356280BD6F87FABC6FD22FBD49A4B63D7AB4D1BA6340A13A826D97BD1A3677BCBBEB603D4AE088BDAB4C53BC49C037BCFCA591BC67E394BDCE08C7BAEBDA8D3DE12E543C99AC21BD8377843DBBB09B3D4417ECBC4D894E3B21FDD83CE7ED85BDF1DB83BD1E681C3CC1968E3D3ABCFCBC6D9850BD688BB5BDE68472BC334F213D6B6FEDBB2365623D91669BBD390689BD558D33BDEF2F6F3D78AA5FBDB936F9BAB9EB53BD9F6E233D668B203DDEF0B2BC7A8FAB3CBC30E1BCC8AAF5BBEFCDD8BC10AD43BC8684453D0FEC4A3C5A3450BDF854AEBD9455ACBDD9973C3D5E60B4BD91EC793DCB21B93B0D0603BD518A88BD59E5533D0B6BAFBBF445273CFCD23A3D602499BD0AA38ABD365122BDA41AD6BC14E933BBEC8F5D3DFD2DB43D659D243DCAB05EBC884B933D79891DBD60AB4FBD85B99BBDB467C63CC304A2BD111E1B3D243CDC3C45878EBCBC25B53DA428CF3C58DD883D07578F3DCBAC6B3D5952CE3CB7BC5BBD50B8A1BD90F76DBD130E6A3DDF9D34BD81B3B53DCC3764BDCD0B9ABDE7EDC5BB57EB88BD0ED0623D219ABC3C60A3ABBD013A54BD02FEF0BA1120863C87B755BD8A61BABDA1F781BDB3CDA83DEC0979BD207D523DBBEB4ABD74ABC73C829350BCC185B6BC3D974C3C5850493DAB0A76BD82A866BB5458723D3B20273D6084A13DF92CA6BCDA5020BB9DADA73D7E59963CC629413DF4291DBDE32DB93DB1A94D3DF58878BC7C3D803BFEEF09BD324D843DD666963D1FCAA73D6E96E93C963C6EBCD0292ABD5FFE82BD42DF8E3D93639C3C430FA53D1F7C92BD1CC70ABCE5B09CBCB10FB9BDAE7FD83C1F93453D9C9EA5BD08A6A13D46048A3D69D39BBCE852983D4EE8B8BD483B693D5470923DDC259E3D8CD0B13DF659C13B44A2273D8C061ABCF9AA93BD1F34A6BD200CA6BDF3BF9D3D870866BD2E86B7BA45D4323D474CB3BD94158FBD9295283D7A54A33C8CE9B63DC21B963C0B98AEBD273D15BDFBB1953C11042EBD80BE59BD3319313D9390AABDBFE0013DC3AF4D3D09ED4FBDA2599BBD9FBB74BD812297BD48F85F3CA98D8BBB2DA82DBC8B7DFB3C29439D3BF48A8ABB99D783BDCC23693D2BE26D3B67E1B1BCEC85873D18C516BCFC50B8BDEE7C00BC67843CBDD9C27CBB591E0B3D28A5A6BDA123ED3C4CCA19BA8D3C7FBDE14640BDF503AABD560ED1BA945C0A3D184897BB8720203D20B214BD583EDD3CAAC0743D1D8A0C3DC6094B3B9845503CC53E0D3C19DEA13DA1676EBD26FA8EBD4A61493D39DB8EBD4FDA5D3C407CAC3CE515483DCBD277BC58E5283D345B933C9F126C3D509584BDEEE8B93DC90C8EBD25B55D3DE3CEBA3D6B45893D097EBC3CBC64B43D3D9D413CD1AAAB3C262922BD36CF0D3DBEBB843D9FCCBB3B52576D3D7D86A0BDA418873C3FD7A13D72B49D3D84B444BB080328BDD819903D8A78AE3C9BF6203D92D2EEBCA28D18BDCC6A7F3DF069B43DAE28DB3B7676353DA2EE7D3A5C9A4ABCA2D69D3C9C45003D3F7407BD78EC5BBD0C9E72BCE91697BC090982BD74157BBD85061C3D46555B3D42A942BD8FCEABBD8A24B33DD32AA63D3D111EBD215D51BDF55C5FBDA3482BBDF3B29CBC2DAD0EBD1D1C803DF854D13CB8CA973DE38D6A3D91819ABDDE128F3C4A3474BD17C5573D94F63F3CB733573C5C7375BDFF21AA3D13C63CBD39A914390AD774BCB01FACBC5112A63D376E08BC2AC28FBD6E97B13D860D8A3C1915903CEC206DBDB622A73DE1B16ABD03BB5EBC24CBA7BBC1D5D93C1CCB593D329AC5BA7DFC2DBD0FDAB5BD035E9E3D07E3A5BD214B023D8C4D89BD2CD85CBD0374B73D21D6F13CB7C4383DEDEF223D2ECD26BC4D23243DA02B34BD10844E3D165C3B3DDC6D443DBBAC66BD886C873D2058A23DC227233D411F303DBE85B2BD18C982BD0AF5FB3C6E69A3BC07B3BCBBB28C6CBD9CB31C3C6BED113D1673853DA854D33B3782B9BC3F10E83CC5A30DBDD552B4BCC6AC8C3D8C80E33C3DD3833CC571B1BD618CADBCF342A33DC59526BCAE0564BDB34226BD97C696BD8F5A3BBD4DC7133DD08AB33DBE057BBDAD567D3DF1A99DBD41443C3D2DC0523DF1BBC0BB3F87673D4EE6D33C4F208C3DC1E3313CDFA266BDD7C2B43C684BCE3B833BD8BC57FC88BD8B169F3DDDC4A83D318A9DBD3923723CCA9A7A3C1837BBBC4A94473D857873BD69C88A3C5874F63B0834A3BD0CB9B83D8A96833DD35B81BDD168A43D9539463B07202CBDD1D7383DFBB66BBD9D29AF3CA3EE42B9E367A4BD2C4A6C3DA1B08A3D5ADCBA3BC47CBB3C34108F3DAD37743D148B3C3D7A459F3D04F21FBDD18DF03CA374043CA371323DFA466DBC85B6153CDF5E50BDACDCCBBCD3751DBB341077BDBE0D8ABDEFE0623DD723DEBCD5E94DBD506572BB95995BBDAE27B03DCEAC943D8BD647BD4FF94A3DC7DBDCBCEA9F49BC35C44B3D96755DBDD56850BC0ECF5C3DA2B669BDCAB486BD56CF623CC012503C8CF7CCBBBA36F3BC6BB7B33DA02C893D8F7BF0BB29D7803DF2CA8ABBDB0EC13CB6C2333DEF54A8BD7EBCAF3DE27971BDFE0715BD1510BC396100BC3B8DFF15BCF38D733C805CA3BD5211C93C077C2ABD4D45463DB3B4243DCE5FB93D6E3A8BBD52883D3DCEE50D3D6A2F663C1591943DEFE6E53CD4259CBD6CEC343C175F4A3D2CB0B3BDB8D1293D8FF18DBC88C5D33C7A3E8C3DB788AB3D158C9C3D2BF9F33C7387A53DC631A2BC8BD1A03CEF5D803D42781B3CDCAA6EBD5CA67A3D5B96A43D3D0238BCA195AA3DC7C4813DEE3AFBBC9207B0BD58D9ABBD83EDA2BDACEA39BC0D40743DD5F70DBD53A145BDEC37AC3D114591BDBC9065BD24D431BDFE36AEBC849A11BD843E933CFD4C3A3DA742113D8BCB4FBCCD078CBB36358A3D1C4F413D29941FBCC25F85BD433C5B3C4E0E523B2395963D6F64913D051DB93D2B2690BBC7C8BABD3B44273D60C1983D8F68313C2646FCBC332639BD7F4D97BDBF398CBDFBA5A0BD5C4F13BDBB2A893D3B097A3BC53A953D3E29D4BCC2E86F3DF75291BD61094C3D6373063D66923A3D17BD5B3D535EA4BDD155CE3BC4BF923C1D69E83CBB6797BDCE4EC63C102487BD85F5903D29F5E4BBE53A823D75D3DB3C1B542B3D449621BD1B67DA3C9822B1BDD21570BC20ADCCBCF0F9953DFAA8003D55EB363D8766A9BD81B5B3BD8E2F98BDA02A92BD83F9D4BC855E9CBDF01926BC8513FD3C2C581FBD01BE9BBD0203B03DAD48B4BCB7BB843D2E4EB23DB0AC28BDE090B13DC578E0BC7A90B03DB84A0D3DB1B0B2BC1C718D3DA030353D24CF5EBCF9AE173CDB2AB3BDAC626DBDAEB6953D243CA23D20FEAE3DC5403F3D280BB13DD79891BCF8D57FBC5F30923D1E50E93C7D7D853D2872B83B9F7A7ABD05D9333D27B5E6BCAA67673B665DFABC2033393D146C593D784187BDB903953D3C2CB4BDEA9112BD812F3FBD985DE23B90C13BBDA3F63CBD01C05C3C29D24EBDD7B1D83C606C7CBDCB0C62BD7223D13C4A9D7EBD2B339FBC75AC753D5F8D69BD837CB6BCB836823DF66E8F3D58978DBC8B25FEBC2488103D2302263DC683FEBC879C23BD46772F3D0453863D461D92BDA65F5BBD20738DBD2023263DA85E31BC9E6DA93DA85EE9BA2815943CBE3096BD69D59EBDA2A26E3D23AFEDBC0552A5BCD59E23BD2CFC233D7E4D1B3C363CB23C3F8A153CB5467CBDCFD831BD5F79A6BD1BAE50BD7E7D88BD4B339DBD440C29BDDA5722BD9AFB23BC2BFF87BD988F693D299D8D3C2E3EA13D873DB7BD7DF46F3D5FBFDE3CA533773D0777143D323A863D1CF82D3DB40695BB1E02A83C2AEF203D50CAE8BB3D03ACBD0B64313C842D25BDC4FAD73944E7B13D8B0C31BC60C13D3D1200C63BF649B6BB61D4343D723AF6BCA737B8BD13C044BDEE30543BF8D688BD0E6AA8BDEC4AA83D067377BD8A53F73B8525C63CE33189BC9EF6433D084129BD237721BDD7F9DE3C6FF912BD8DA4E43B95D31F3D5DDA243D6630903DD4D1673D0F7957BD8D3F8C3D333596BDF78C5DBDD819293D9AB7963DBC11B43D69D07E3D828B863CE7B5953CDEABB63D7271853D917387BDE9C4B13D16CE443D7AB82F3DB4A8993CA6A1913A5125B1BDAC5EA3BD42DFA33B396579BDC078773D916994BD27C2833DF3AC6E3DC9E692BD5E0087BD11C08B3D7BE80CBD1243B73D26A6473D6F90713CCFC2D1BC68E87B3D329B1D3DBB2C8ABD145691BD945528BD9A14843DF62C91BCD7D6763D689EB03CD6F6CF3C124DB23D2CB034BCB446153D0658173DBABF06BDBB0F40BDC5A86DBD55C03B3DF2828F3D7BB065BD2BA6AABB2FE6B3BD3A5178BB9F2283BC3FCB813DE5A3A9BDB8B960BDEEDFEA3CD3CBED3CC68C72BD501BF9BCFF0CAB3D843C63BB0100BA3D563FABBD715847BDDBD365BCB69F7CBD7696EB3B040DD63CB9F6A53D138A70BB74594DBDCDEC8FBDED7929BCF9CB923BDF25AABDED08983D45A36DBD9999883C897DEE3A81B14FBDE8CD883D3A136FBD8CC6253C6BD10B3D1CFC443D9511873D585C413DB3AD7B3845171FBD99F5E63C8DCB5CBC81B51FBD868B90BDE21B8B3DE6378CBD150670BD70C94DBD12C2A03DE6DFB6BC2C7D273DD30E983D7470DE3CCE7E81BD17A08F3CAF72923D468E873D95AEEE3C465B053CC9627EBD9C94593DDA8E7D3D89469D3DF2DDACBD1F318CBD86A1853D2CA495BD3FCF813D5776D3BBF54AFDBB85E81FBDD0CA853DEA758FBD3CC8C4BA9549CE3C5C29E73C54439C3D1128883DFE12E7BC199C59BDD14D843DA149B23C20B4D53C4AAD5FBCB5378F3DD799B03C9381B13C164EA33DF38B123DC893AC3CD8CE053C87F8903D0613AC3D052086BCA1C10C3D89A355BD621E913D5E9B8CBC88B4453C5A7FF2BCBADCA6BDF2D8F0BB68D07DBD5F40233DFF087FBDA27F38BDE686B9BDFBBA313DE277463D01A432BD2C41B7BDBFEA66BDEABE533D112085BDA44EC13CC3673C3C9F9009BD8822913DA4A46D39CE31283DC656A03D532FA3BD2E5D97BC8EBBF83CA637A33D56F52DBD9C75A7BD8B1B333CFB4EB43D38C9683D840E833DB0B1213DA54EAA3D93A073BD37919F3DC9DB26BCCC48C43A1F4785BCEBAB46BCD1D99DBD48DE7A3DF708763DFB34963D5118823DEDF7B1BD5C7F9EBD1C74003D2DACB83DF8BFE63BD52EAA3D6E369FBD96BD2EBD3AA214BD48A8C73B26BFD83C28A150BD5EA59B3D6771B0BCCC5ECFBCB435993C729FA8BD3DD989BD0BEF953D39F9133C09F5303D20CF2F3DD111F43B4E35873D348FB6BC44FB093DBC66883D7BB9973D395129BD90EE86BD0C99B23B894213BD5250B7BD302250BDB2588EBD50D616BD47F5303DDB776B3D99F9983DE81B52BCD99B973DA8896E3D7A7E84BD967F543DA9679CBD0700A0BD00094B3DDCA349BD33AC9EBB842CA8BD44F8453C0B39943DFA06A73D98E4773AF8CC44BD1E89C03CE200ABBCED788D3DC220BA3C014B033DC87715BD486FC33CA2016CBB42382ABD22469FBC9ED3BFBC0E04A7BDA8D100BD552BB3BDA1F9B5393576233D060E573D80C0413D330B3CBDF3902CBDDBBD5F3CF48D9C3C110583B88466A1BD4D4AF1BC656470BDEA5E733D8F86C93CF923C33C3587A23D6424773D04C875BD59D62F3C458542BDA58A74BD215B5BBD1305F2BCF7A38A3B550A52BD787FB5BD7E2604BDE7948DBD9B12F23CF161ABBDBB9B84BC784D06BD42E05E3D3CFD6A3C576A66BD2ADE39BC2353B33C729CB5BDE593AE3DF23319BCC0E2E0BC51CFED3C1F43BABD8F32CB3C416970BCA184063D427FB7BD18841C3BC57EAB3C7CC0C03CB3E0B63CD8E55CBDBE211B3DE6D496BD4D3955BCDA0786BD2FCA27BDF266B3BD0257DEBC53D997BD69238A3C4A966F3C1DC656BD28CBE83C7E7BACBD2B2D66BD61FE67BDA556D83CE155943D4A6CB6BD25EC93BD5A37ACBCAF2970BD08223F3DCE4779BD1A7C0F3BFDD08CBD2C014FBDDC212EBDC3F51DBDDCED25BD5CAEB8BC0785103D7EB28BBCD87637396AAC953DAE0047BDDF87D83C2B5726BDCF0330BCBFCA9C3D19CB85BB3E0885BD3305C13C2C66CC3C573C1B3D781B95BC97BC62BDCD356F3CF4D5653CBA370CBBC13616BD54E5BC3C79C060BD36D9043D6184BFBBB646D33C2B2074BDC17CB5BDD97078BD7310A43DCD45A83D817E913BBDAA48BDB135F13CECB89ABB12F8453D4B8881BDEF7A31BD7D4EBABDB78AA3BD1DD1913D25F37EBD03D3873D9F40A4BD9157973C8B2029BD96F8303DE089213CD9DB983D0418643C9D4E743BABD97F3C2234643C810DBC3C59EFA03CC9290D3DF818573D2C0DB5BDDD00EB3C040D933C690595BDC16F0C3D518F6BBD7EC6703DB3D631BC40C29F3D480A54BD4C24373D4FD27C3D485658BCAD72B3BC6604FF3C2FCB5F3DACD90C3D403437BC0F98873D6FC475BD5BB1163DBD31503CBB0A32BD6CE9373DB5279F3DCAAF5CBD35725DBD23A706BDBC5C13BD9E462BBDB8B7513DAF6E973DFFE7663D2B2F013C2DF6AABD62646CBD1887ECBBD76607BD79B1FABB670012BD1279E5399B41BA3D6DB1A9BC2D91963D443B683C41C8003DF7D8C9BB76A5313D8708BCBCE17CA33D1269423DCD00833C9861913DFE41633B6CC330BD860BB0BB668D47BD844861BD26A9AC3D01308E3DF69F27BD38A52DBD21F8FABB8C64B63DC9AD213DFE2334BDD41E32BD1BDE2EBD086895BD132D3BBDCDD1F3BCBDE48ABD9325B9BD93BFAD3DF671833D91CE83BD27B858BD17DAC33C52394A3D76AF93BA9E080ABD2C25983D7DACB83B1011193DF508063D94E8653C71D924BD8C9B603B7FDDA73D6655F63BA258AEBD37C9FCBCA7F0803DEF2D90BD514D7D3D364785BD7FAE503D92B9563CD281BA3C3E11963D165954BD52FF50BC8C5F2ABD50DA80BD734FA63D6F74AE3DF427F43CFEB6D6BC6BC36BBD59B3233D0DE8943C838BC63C15FEB4BD960F4CBB561940BD7FFC32BD777243BD1C52ACBD9F42B23DD8BEA63D32489DBD10AAB9BD498C99BD5828C7BC617FFABC94999E3C187E5FBD05FFAC3DDA39493BFD7D1BBD5169FFBC3979873C52864ABB478E16BC8E0E193DB0B921BD8CC3EF3CEB296EBC97FF7DBD5A9B4A3D39F6C93CC368613BCDA2503B43AA103CA8A989BB51BF66BDED9A883D253B873D36AD92BBC856B43C9A94453D220E363DA7DE9C3A5E0AD63C1895333DA96B9B3BEA1C573DAF79A1BDF2C35A3DFAB3A4BC0DA05B3D99D31DBD6E0DAE3D2FA2463D7D33833DFDDCB2BC8C69833DBDAE923DDC871F3DC25EC93CE66530BDAF63933DC30667BCECEEA63D44F6943D7C12413DCF896CBD583F38BD3E9F983B02D3093D6C738A3D3B3AB6BDF7EA543D6E452F37C8C0013DEAA089BC3C69913C3C2F3CBD5802FFBCA1C296BB0A26443D19DD183D74BF703D50A692BD33351F3D982A2C3CA40C41BDABCC9FBA56554BBDBEB940BD95BB9E3C3018813C374EF8BCCA29A7BCC060F23B12689C3C9CD107BC6E44D3BCB7B564BB42B88BBD8A02F23C34606FBC155C0CBD350F79BD2A6A17BDABE5A4BDA0F3FB3B0099A53D8828973D2DC579BC679B09BD6722053C3901953AD8C5833D810699BD1ED68E3CF14E963D1DF69ABDF15335BC51C85A3D24E810BD10D882BBF40380BC9409863D3ACC9BBD2B333B3C70E97FBD4081ECBA59845CBD44C9FE3B1023A3BD03B899BDA304973DDAE2623D55A19DBD067C8D3C4D165F3C5EF9A73D5B84843DBBB57E3CF00ACBBC354EB4BDAEF2ABBD522A5A3D53C74CBDA24E6CBC4A489C3D301FB83DEED0ADBD889A8BBC2808683D674314BDE8B9B0BC495478BD39C58C3B71DD6DBDBCDAF73A315F7EBD0A5535BC6357E23B30FC3D3D307A143DCC1C05BD9607453C543CB7BB38D9EDB8B890D93C760ED8BC5DC382BC7927CABCF2A958BDB75DFABCD2C55F3D41F613BC534B30BDD352B13D18A842BD2E9D08BA97A9AD3D96A1673D19A1103DE2FE643D2DE7703DA45891BD472DA2BBC74E963D853F36BD9A28F0BC2DE438BC6872B73D8DE294BB81D9ECBCC96BCC3BE978373DB753B23CCEADAB3C9F62B5BD4C07F9BCB9E9393D25AF42BC4CD59DBDA3848A3DB71C4BBD3C3C88BB80A5F93C2A6E0EBD351A1DBDBD962D3BCA1D9C3D5423503D826E803BCF46233C759607BDDDED663DB7E3883DE75853BCAE1C87BB62391E3DC3DC013D34341BBC045007BD9B668DBD2A61423D030D913C4CD87FBBB1FA36BAC78B27BDBAC54CBD669DF6BC2B96383D498429BC04E6523C6662A73D6EC02CBD34300ABDF1D115BDD1F3A6BD90B8B53C68DC003D5D6B9CBD617F06BD23C59CBD6F1883BDCC647CBD8C81EFBC9D7E10BD88BB153DFEAACDBC1313DDBAC60002BDD819903B2EF584BD7E17213C25C44DBD49E7093DF05C81BD7BCD59BDAFF3FCBB1CA3F0BCB598AFBCBF31883D97B8643C6756293D641544BD90382C3B55732A3DB5BDE93C4DD8D23C105871BC8059FCBCD9BF3ABD2C2D6FBD454133BD25134C3C81C961BD8A0AB13D2825AD3CB5E9223D4D21273D66DA083DC845943D6F52FBBC6F4490BDA6BDFEBC3CA4FABB444591BAA7A719BCEDB5B43CBED3A13D0DC2F9BCE34165BC25388EBC4B399B3DBB8698BC28AD4FBD1D6BB23DF37ECD3C9CF7E3BCCD27A2BB1F29AA3D27ABA7BDD8E2553DA9367E3DBCB89CBD3D5411B91DD049B9AE16B6BCD5F93BBD3625843D689622BDB0D5EF3B12ED8A3D2EC1ACBDA1CB57BDB8CE70BD049D07BD9324B53DBA2FA13D9C07AE3D5F7F2DBB674CAB3CCD953E3C4DCC703D07F5D0BC56D5A8BBA0ED9E3DAB6954BD877DA4BC135697BDCBBF06BD8510803D56A8ADBCAAF3ADBD8FE2933CEEED8FBD8F94D03BD172CC3CAB94413DCEE6563CC278173DE63201BD13139CBDF8533D3CF132713DB8E31C3CC8A8893DE7E28FBDCB2644BC2E1E1A3DBDF1B33D4DECB83D17DE883D743D7C3D7B4C783B158B64BD88D805BDC538843D24AA433CC700B1BD333CC43C79CB4ABD46DF72BA143EAA3CE93EF4BA99EA31BB577B1BBD75450D3D9A6344BD5C5D4F3C5951FA3C2392A13C95FCB1BC606B68BC0AED1F3DA9A729BCB564523C854B873D9CFBDABC4C829D3D0C2595BD067D593D11BFBABDF5E9EC3CBE4F92BD6AE43F3C2F59AF3D3117A0BD3FDEB43D1E1183BC56C82B3D7563823D13A388BD397984BC3E6B91BA38D6933D71B8B83D5F71123DC801B83BF4285E3D58C0703C10F781BD3FB64ABC0A4145BDEF128CBDFBEF56BDD284A53B040063BDAD8092BDF8C661BBEE9CA1BC4898B1BCC5429BBD2742743DAB14E3BC7BBA2A3D33AEE23B88F24ABD7D94803DF32491BBCEBBA43BB0A0BBBC6CF08F3C8140A3BDD423763D2AB1E8BC3D83983C21B1B33D06C5113DBBC4CBBC6A49723DD6D43BBCC1F19F3C5385B0BC9A26ACBCFDA2563DCB1385BB1B3727BD6369333D54AD97BC26D775BD3144A73D34058D3D4BDC723DCD9D8DBD3846AB3D3942CABB6566B33D2903AD3D9319883D56402DBC216197BD799653BCBF459E3D8D0A8A3DE75636BDA35D943BBD3A0FB81DED60BD54AEF13C922EFFBC547FB23C453D9EBD53CEEEBCCB1E963D455B9FBDFCE013BD434183BD7A4F10BCA4F0AC3C6F14023C2B4FB43DE3D0303BE8EE083D7D29BEBC50819B3DCFA0A1BC62154CBCEDB428BD336A99BDEC9C73BC505F8BBDB67D4F3D29C82A3DA907463DC040593C50428E3D140BA23DB6518B3DBA62113DDE867EBD567DA23B4143943B5CD2AB3D7D2F8CBCBA873D3CD379ACBDBBF6AC3D301754BC97D2AB3D1354923D3EAB8D3DD7747CBDDDE6023DBA6B933DBC3939BDF35EA63D6695A4BC1CE1B93D458B8D3CD5C19ABD83E3FBBC0582AEBD06548FBB2B1EB83D14936ABDE55961BDBC63843D8F32413D41E42DBD9D2B2DBCBF034A3D91894F3D74E444BDC2D28B3D9FF9B33DAC1DDFBC6A507E3D7B75ABBCD122DBBC6A88A13C4DB7EBBCF221613DDBF91C3D3E3774BAA68890BD1F119E3DA3E80ABDF01CA2BB9D2408BD8C3D01BD273D153CDAB85D3AAA5399BD6438143C9568AABD3EDB863DD4596DBC0F22833D254281BD91EF563D87B3DBBB7B3E2B3D2AEFF43C63F8B73DEF30473D9514013D9905163D35B4CE3CDA51B1BC4D5A84BCDA6178BD0AD7223D13BDCF3C88A587BD8D97923C68C89EBBE7E0043C037B663D3C97A2BDF17C0ABC0BC3133DD5D34D3DE62A8F3C4D7F303D9EED093D4D45F73C9EE65CBC55EE403D846EA63D233C383D2BE164BC1AB762BCA51E2FBD48B62EBDECB6883DE9408E3CFD578D3D6CA1DFBA2BFB91BD128D2CBD9B05273D106D813C143575BD3C237A3D091F0C3DC59B53BC011885BD928CEF3BE3E3B53DE2ACEF3B4D0CBE3CFC5C7DBD7350853DB34E50BD11D1643DB89D8ABD8AEA263D05E003BDCEF6853CC5FD07BD7E23403BDEC53FBDAE5D363CC0BF54BDAE2645BD06C7B9BC270BAEBDC3D9A8BC749883BCCD2E3CBD63DBD7BC329294BD330EA7BC99B21D3D4BAD91BDE77A413D9CDF34BD9B165B3B0A8CF8BC3AB3D93B88DE253DEC9E383D7666F73C3B038FBD5C0588BD7D4E6E3D52ADDEBB9E896DBDB3C377BDAFF28A3DEB04AEBDA5FCAB3DBD26023D5FD18D3D86098F3D6F51A23D59C89CBDBD0514BDC69EAABD9C0252BD1DC6283DE1C7A73DF206213D5A1C1ABDA08649BDB5AC7F3DADE001BD2A168EBB6424ADBD256A30BC527105BCE64A3A3D9ACEF93C4F2007BDDCA7AEBD563D4A3DE43EE0BC6B5F2DBDC725213D9743383DDC400DBDF0E344BCD58A9CBDC3AC9A3DB7DFBCBCD0D30BBCE0245D3DF6E2103D3163093DF22752BDD5F18CBD80CA1CBDE4A1903DDBE37F3D92F894BD3C216EBDC4A7B83D6692253D43C8653DF8432FBC8E333B3D1415903DBD1908BD21148ABD6C13D7BC8E2BB43DA0587D3DE348593D353B9DBD9C0BF13B615E823DD02AB03C66698CBD7C5C7ABCB21F76BD131798BDB762AC3CD70692BD8E35A1BDB7D0AB3D3966FBBC7C07063C2A1E393DD1C4063D08D5A23D4D738DBDDA89D3BC4707933DD2B22D3DC19F693D8AE75B3DC6EBB4BD3E1A41BC69F69C3DF68D5E3DDBC4FCBC1E0334BDF733863D547EE43C6E4E1FBDB681123C735F133D4A9D7B3DA084E4BC960F3ABD9DBD873D1E94003C1AAA1BBDFEFEB2BC4B8CA43D0B6BB8BDDCC8B43D17EC4CBCCB7B363D9F90ADBD5153D23C3242B73C4056053CACBF51BD3A1771BDD27E423D3F98A43D5E553FBD366B47BBAB1C5F3D9B4597BD1FFD8EBC6F104DBD352181BD1028C2BCB83CB43DF0DD33BAFA067CBC99538ABDEE38A33B19FC80BD2DEBB13DCACE66BD22355F3D4002973D7EDB4ABC31035ABC58129DBD2E528C3DB4E80DBD08C107BD20C0B7BDD6B740BD9939B33CCC9789BD476DE73CA4E4DE3C1839E3BC672879BDB39CDC3CAE83173D7E0062BD9B6493BB0C68B53C4C5251BC4652D4BC9CDCA63C3999C43C0F409CBDB353B6BDBA8C8C3D2DAA823D72C4FC3C8CDCA53B8A1F3E3B64DF69BDF1578A3DC663AEBDB864AFBDE126513D0FEBA13DAE287ABCB9BA6EBDA484D7BB12BE90BD1F3096BDA9B3C8BCB0392EBCD397BC3BCBBE8EBC02F380BC1840B23D9EAEBABAE83C243D9240AC3DD41BB3BDDC14AEBD39A1FDB9678036BD54F9863CF43164BD05D2583CD650AABC726686BC3FBB9BBD30598A3DB9C38BBC3B73A33D89EF4FBD638C6F3C59A46BBD5F134BBDFE300BBDDC7B96BC5B88AA3D0E5EB9BD6AD195BDDC9484BD93E1ACBDB1D8803D9554BA3D9AC1AC3DFA6D3ABDD7CF5F3C24B3B43D94EAFC3CC134B8BD32ABF2BC006091BD6F0D8A3BDCEA31BD4F66173D972DDB3C11939CBAEBC78B3D0C744CBDD383983DBF3DD03C838CBA3D8F63303DE06C783D90EEA63DD73B86BC72531A3D564A79BDB4B8B0BDBA285EBDCC2141BDF95F9C3DC21E243D7F69353D9F65A1BD30366FBD4B3AB4BDADCB9F3DCCB94B3D8CEF10BC463492BDD01765BD336EA03D015796BC4C4DA6BD5602723D3B3892BDFE3F0D3DE61F9E3D3A6D833C163011BD4CA4ACBD301FDE3C0B40EABC710EAFBDE982B2BD2E1A9CBC70FA2DBD59FB8ABDDC109DBBF80167BCA9A6A43D"> : tensor<84x120xf32>
    %cst_3 = arith.constant dense<"0x83B5483D93F71BBCFAB9BD3C3D21CE3CC3D8A9BCDDE5CBBC6052223C5FCE43BD5A3EB73B8F280D3DB25C2BBDAD6B3ABD8AA0153DC384BABCAA7D43BD1AF1693CFA96ACBC7D1C36BDDD16B13C8D44823B9A3B5DBAA705D7BC5F5B01BD652F0F3D4ADFDABC150C1BBD55E13FBD1A4A593C906F3C3D13BC37BC1A4F78BB4DB423BD80F62DBDE710E2BCB7A9953CEA48E0BCB29209BD271C2E3D77BE8D3C5A92BA3C8DEC0D3D9A429DBB77DB2FBD47CD3F3D6FC832BD40D7C2BB2DFD023D0389373DADBC8ABC95D83B3DC725D83C0038703900F8183DEBBE0FBDF308F63C100B1EBD07F9C2BCB3C4E5BB9A9314BA5A69383C13602FBDD058893C6769C7BC5306C23CCD6023BD3A1BDBBC5027BA3C00875A3C05BE403D98971EBD1F481C3D2D33F6BC3BD93A3D1317603CCBE2443D7A0AB13C30A34CBD8A8B183D67E447BAB09522BD1D5ECABC175EEFBC5DC8A03C1A35CE3C33F5E2BA33E278BC9A6C1E3D5FFF223D1387063C0BE2033DD3E3273DE7A9D33B8AC69DBC80FAC13B827513BD804D93BC1DA6EFBC2562383DE23548BD335C9C3C60CFE5BC3A2356BC2DB210BD35C6463DED5F833C33E38CBB0D5847BC47350D3C4DF3753BCDE0423B004438BB3391603C3800433DB2BD3BBD8054A03BDA7F093DA802213D07B5123D9DB6C1BC00D4973A"> : tensor<120xf32>
    %cst_4 = arith.constant 